<pad>	0
<unk>	0
<s>	0
</s>	0
▁t	-0
▁th	-1
▁a	-2
in	-3
▁w	-4
▁the	-5
re	-6
▁o	-7
▁s	-8
at	-9
er	-10
nd	-11
ou	-12
▁c	-13
is	-14
it	-15
▁b	-16
ing	-17
▁m	-18
en	-19
▁h	-20
on	-21
▁to	-22
▁p	-23
▁f	-24
an	-25
es	-26
▁d	-27
▁of	-28
ll	-29
or	-30
▁in	-31
▁I	-32
▁and	-33
ed	-34
▁l	-35
ar	-36
▁y	-37
▁that	-38
om	-39
▁g	-40
as	-41
我们	-42
ic	-43
le	-44
▁you	-45
ve	-46
al	-47
▁we	-48
▁n	-49
▁wh	-50
ow	-51
▁is	-52
▁A	-53
us	-54
▁e	-55
▁be	-56
ut	-57
▁it	-58
ion	-59
ot	-60
et	-61
▁T	-62
▁re	-63
ct	-64
▁ha	-65
ent	-66
▁on	-67
ld	-68
ver	-69
ay	-70
id	-71
▁And	-72
▁Th	-73
all	-74
se	-75
▁this	-76
im	-77
▁这	-78
▁S	-79
st	-80
ig	-81
ro	-82
一个	-83
▁我	-84
ere	-85
ur	-86
ch	-87
▁st	-88
ly	-89
ke	-90
ce	-91
▁for	-92
if	-93
▁was	-94
ra	-95
--	-96
▁W	-97
▁do	-98
▁an	-99
ir	-100
他们	-101
oo	-102
▁are	-103
▁我们	-104
ith	-105
ally	-106
op	-107
th	-108
am	-109
▁have	-110
▁with	-111
▁--	-112
▁ab	-113
▁they	-114
▁k	-115
▁u	-116
▁se	-117
▁can	-118
▁B	-119
ation	-120
out	-121
▁mo	-122
▁as	-123
ht	-124
▁"	-125
▁so	-126
▁go	-127
▁li	-128
▁what	-129
▁So	-130
ad	-131
▁he	-132
▁com	-133
very	-134
▁wor	-135
ill	-136
▁at	-137
ould	-138
▁me	-139
▁about	-140
▁sh	-141
▁ne	-142
ant	-143
ter	-144
▁not	-145
可以	-146
il	-147
ge	-148
ol	-149
ul	-150
▁all	-151
ust	-152
▁但	-153
▁j	-154
▁fr	-155
▁The	-156
ers	-157
▁ex	-158
use	-159
▁som	-160
ight	-161
▁pro	-162
▁ch	-163
▁r	-164
▁de	-165
▁or	-166
▁there	-167
▁pe	-168
▁my	-169
art	-170
▁在	-171
这个	-172
ear	-173
ople	-174
ck	-175
pp	-176
um	-177
▁like	-178
▁It	-179
▁con	-180
▁你	-181
ure	-182
▁We	-183
ess	-184
ate	-185
▁one	-186
▁people	-187
ies	-188
▁N	-189
ive	-190
▁ma	-191
ca	-192
ity	-193
est	-194
▁kn	-195
▁from	-196
nt	-197
ect	-198
就是	-199
ist	-200
ble	-201
ind	-202
qu	-203
什么	-204
▁but	-205
ink	-206
▁us	-207
▁our	-208
▁out	-209
▁know	-210
ook	-211
▁al	-212
▁int	-213
▁te	-214
rou	-215
▁just	-216
▁H	-217
▁M	-218
▁thing	-219
un	-220
▁v	-221
这些	-222
因为	-223
▁C	-224
cause	-225
▁sp	-226
ide	-227
▁them	-228
and	-229
▁1	-230
▁very	-231
▁these	-232
os	-233
▁see	-234
▁而	-235
ie	-236
ort	-237
如果	-238
▁But	-239
▁think	-240
▁up	-241
her	-242
▁if	-243
▁who	-244
▁tr	-245
00	-246
▁get	-247
ich	-248
▁所	-249
▁going	-250
没有	-251
▁pl	-252
el	-253
ci	-254
▁by	-255
one	-256
▁Y	-257
▁act	-258
▁some	-259
▁他们	-260
现在	-261
▁when	-262
ain	-263
iv	-264
▁那	-265
▁had	-266
▁它	-267
▁because	-268
▁your	-269
▁more	-270
em	-271
▁year	-272
og	-273
▁sa	-274
our	-275
▁were	-276
▁im	-277
▁which	-278
知道	-279
od	-280
▁would	-281
▁tim	-282
ine	-283
▁look	-284
问题	-285
▁所以	-286
▁really	-287
▁want	-288
ually	-289
ment	-290
▁their	-291
▁how	-292
."	-293
▁ta	-294
ast	-295
▁comp	-296
ame	-297
ard	-298
▁O	-299
iz	-300
▁work	-301
▁su	-302
act	-303
gh	-304
▁Wh	-305
ood	-306
ous	-307
ack	-308
▁这是	-309
ap	-310
的人	-311
▁en	-312
reat	-313
▁way	-314
不是	-315
hing	-316
ose	-317
▁here	-318
▁E	-319
▁le	-320
ore	-321
ab	-322
are	-323
▁因为	-324
▁then	-325
▁world	-326
ther	-327
▁has	-328
自己	-329
非常	-330
世界	-331
▁P	-332
ans	-333
▁time	-334
▁但是	-335
▁当	-336
▁You	-337
▁This	-338
ag	-339
▁actually	-340
▁per	-341
▁don	-342
▁D	-343
ong	-344
这样	-345
▁qu	-346
一些	-347
▁say	-348
▁every	-349
▁into	-350
开始	-351
▁他	-352
▁will	-353
▁G	-354
ace	-355
▁exp	-356
的时	-357
▁could	-358
▁ev	-359
ions	-360
▁man	-361
res	-362
▁如果	-363
▁是	-364
itt	-365
▁L	-366
▁things	-367
需要	-368
ild	-369
▁fe	-370
ud	-371
看到	-372
我的	-373
▁co	-374
▁now	-375
▁where	-376
age	-377
▁years	-378
▁other	-379
ence	-380
alk	-381
▁did	-382
▁Now	-383
▁ag	-384
▁2	-385
可能	-386
然后	-387
▁F	-388
▁somet	-389
ff	-390
iff	-391
▁They	-392
nder	-393
ach	-394
你们	-395
ical	-396
▁any	-397
的是	-398
▁no	-399
▁make	-400
▁been	-401
▁In	-402
ip	-403
ice	-404
▁diff	-405
▁happ	-406
▁cl	-407
▁有	-408
▁R	-409
▁need	-410
▁than	-411
▁tw	-412
so	-413
▁start	-414
red	-415
▁said	-416
▁un	-417
▁right	-418
ia	-419
▁part	-420
ry	-421
irst	-422
▁over	-423
▁pr	-424
▁something	-425
ree	-426
▁不	-427
东西	-428
▁dis	-429
own	-430
▁imp	-431
一种	-432
ome	-433
▁bu	-434
ign	-435
已经	-436
人们	-437
pt	-438
很多	-439
ory	-440
▁back	-441
orm	-442
uch	-443
▁got	-444
▁po	-445
ite	-446
我们的	-447
ell	-448
round	-449
▁kind	-450
▁ar	-451
ens	-452
ount	-453
工作	-454
▁two	-455
ib	-456
olog	-457
▁much	-458
ang	-459
▁call	-460
ittle	-461
▁those	-462
▁first	-463
▁differe	-464
▁然后	-465
的事	-466
▁little	-467
ass	-468
ife	-469
的时候	-470
▁并	-471
ound	-472
sel	-473
ep	-474
▁ro	-475
cent	-476
▁lot	-477
▁new	-478
▁also	-479
它们	-480
。"	-481
ater	-482
认为	-483
ue	-484
▁cont	-485
▁spe	-486
ac	-487
way	-488
▁That	-489
,"	-490
ght	-491
▁talk	-492
ple	-493
▁ac	-494
ber	-495
▁lo	-496
▁J	-497
所有	-498
ves	-499
ody	-500
▁现在	-501
?"	-502
发现	-503
▁就	-504
vel	-505
ult	-506
ru	-507
▁bet	-508
king	-509
▁ph	-510
▁most	-511
那些	-512
▁也	-513
▁she	-514
ving	-515
▁这些	-516
▁res	-517
rain	-518
▁under	-519
▁des	-520
ated	-521
▁only	-522
发生	-523
co	-524
或者	-525
研究	-526
▁his	-527
▁这个	-528
▁sy	-529
▁life	-530
ations	-531
▁day	-532
ick	-533
▁even	-534
able	-535
大的	-536
▁take	-537
孩子	-538
▁ad	-539
▁am	-540
一样	-541
——	-542
▁different	-543
rough	-544
ial	-545
int	-546
▁many	-547
国家	-548
other	-549
不同	-550
du	-551
▁hum	-552
▁good	-553
ms	-554
如何	-555
▁bl	-556
ase	-557
ict	-558
其他	-559
ish	-560
▁does	-561
生活	-562
到了	-563
ob	-564
ire	-565
大家	-566
▁around	-567
▁through	-568
重要	-569
ance	-570
▁ide	-571
ank	-572
的一	-573
▁There	-574
还有	-575
pe	-576
ph	-577
000	-578
▁down	-579
▁put	-580
▁和	-581
▁real	-582
pl	-583
▁her	-584
▁What	-585
地方	-586
▁U	-587
cess	-588
▁pre	-589
▁show	-590
▁use	-591
ning	-592
▁comm	-593
起来	-594
你的	-595
▁He	-596
美国	-597
ents	-598
▁一	-599
这是	-600
form	-601
▁being	-602
ange	-603
ark	-604
▁off	-605
通过	-606
▁tell	-607
ary	-608
ible	-609
▁happen	-610
这种	-611
▁thou	-612
ak	-613
ade	-614
ors	-615
好的	-616
ress	-617
告诉	-618
▁对	-619
▁proble	-620
都是	-621
▁em	-622
ether	-623
▁too	-624
ath	-625
chn	-626
▁same	-627
▁fact	-628
▁try	-629
设计	-630
xt	-631
▁以	-632
ject	-633
部分	-634
▁inc	-635
改变	-636
▁come	-637
per	-638
▁sm	-639
wn	-640
ars	-641
he	-642
day	-643
stem	-644
方式	-645
ful	-646
ual	-647
row	-648
▁doing	-649
ys	-650
▁fl	-651
任何	-652
▁may	-653
能够	-654
urn	-655
▁big	-656
ne	-657
ord	-658
▁count	-659
使用	-660
ric	-661
▁great	-662
▁她	-663
▁gen	-664
tern	-665
▁从	-666
iver	-667
▁techn	-668
人的	-669
ons	-670
▁three	-671
中的	-672
▁br	-673
为什么	-674
ces	-675
ool	-676
ower	-677
ically	-678
ile	-679
这里	-680
▁find	-681
ting	-682
ub	-683
▁来	-684
▁ra	-685
关于	-686
▁If	-687
▁wr	-688
▁pers	-689
▁well	-690
▁percent	-691
▁bec	-692
▁让	-693
▁sur	-694
系统	-695
▁Ch	-696
te	-697
只是	-698
▁system	-699
事实	-700
ved	-701
illion	-702
▁human	-703
fore	-704
人类	-705
ied	-706
▁called	-707
不会	-708
▁af	-709
thing	-710
ology	-711
故事	-712
▁K	-713
▁let	-714
▁gu	-715
▁tra	-716
▁app	-717
怎么	-718
▁dec	-719
▁一个	-720
50	-721
▁build	-722
ics	-723
igh	-724
self	-725
▁again	-726
▁child	-727
nds	-728
▁而且	-729
body	-730
we	-731
应该	-732
一下	-733
▁ind	-734
技术	-735
进行	-736
▁sim	-737
时间	-738
ian	-739
▁Well	-740
ious	-741
▁made	-742
ition	-743
▁inv	-744
mer	-745
▁quest	-746
cial	-747
oc	-748
▁3	-749
社会	-750
希望	-751
▁最	-752
因此	-753
▁stud	-754
▁own	-755
▁import	-756
数据	-757
来说	-758
▁exper	-759
ize	-760
av	-761
▁lear	-762
ren	-763
▁rem	-764
一起	-765
实际	-766
▁should	-767
▁bel	-768
是一个	-769
ities	-770
觉得	-771
必须	-772
▁long	-773
来的	-774
erest	-775
ates	-776
ating	-777
他们的	-778
oss	-779
上的	-780
▁why	-781
科学	-782
ew	-783
▁underst	-784
▁sc	-785
成为	-786
信息	-787
这样的	-788
les	-789
这一	-790
▁ob	-791
ction	-792
▁didn	-793
ft	-794
▁19	-795
,000	-796
▁today	-797
▁after	-798
▁thought	-799
的东西	-800
▁hel	-801
的事情	-802
be	-803
正在	-804
▁mean	-805
▁design	-806
▁important	-807
不能	-808
..	-809
ty	-810
个人	-811
▁change	-812
▁end	-813
▁wom	-814
▁idea	-815
con	-816
▁interest	-817
▁cour	-818
▁feel	-819
▁brain	-820
▁person	-821
▁它们	-822
▁我想	-823
▁bas	-824
自己的	-825
▁rel	-826
▁last	-827
▁Be	-828
▁car	-829
▁started	-830
ull	-831
▁Thank	-832
还是	-833
▁sci	-834
▁ask	-835
gan	-836
▁him	-837
▁creat	-838
ail	-839
▁trans	-840
▁its	-841
一次	-842
▁exam	-843
old	-844
方法	-845
▁inst	-846
▁went	-847
▁gl	-848
ise	-849
ution	-850
▁play	-851
▁因此	-852
真的	-853
▁如果你	-854
als	-855
▁understand	-856
▁before	-857
今天	-858
ough	-859
▁sch	-860
▁ins	-861
到的	-862
▁might	-863
▁turn	-864
我想	-865
样的	-866
▁并且	-867
▁give	-868
▁Af	-869
▁bit	-870
▁ke	-871
▁help	-872
ular	-873
喜欢	-874
创造	-875
▁point	-876
▁gra	-877
▁course	-878
▁St	-879
ost	-880
公司	-881
生物	-882
ese	-883
▁problem	-884
▁sort	-885
▁another	-886
发展	-887
▁better	-888
ros	-889
:"	-890
▁produ	-891
▁20	-892
ists	-893
做的	-894
lic	-895
ave	-896
▁每	-897
▁power	-898
ility	-899
▁able	-900
ily	-901
▁或者	-902
▁never	-903
ven	-904
▁ele	-905
大脑	-906
完全	-907
und	-908
▁那么	-909
▁belie	-910
ix	-911
ert	-912
▁cons	-913
▁story	-914
新的	-915
kes	-916
▁coll	-917
同时	-918
▁still	-919
▁比	-920
▁kid	-921
存在	-922
▁inter	-923
事实上	-924
▁bo	-925
这么	-926
▁这就是	-927
▁few	-928
▁found	-929
了一个	-930
▁tog	-931
生命	-932
▁together	-933
▁10	-934
▁就是	-935
▁next	-936
▁pol	-937
▁ago	-938
oth	-939
▁sol	-940
▁其	-941
谢谢	-942
▁mon	-943
velop	-944
erg	-945
更多	-946
▁ent	-947
▁sl	-948
那个	-949
实际上	-950
了一	-951
▁num	-952
alth	-953
ense	-954
之后	-955
ED	-956
解决	-957
▁plan	-958
▁pat	-959
▁came	-960
▁fam	-961
甚至	-962
▁我的	-963
影响	-964
真正	-965
▁mod	-966
ata	-967
20	-968
他的	-969
经济	-970
▁dr	-971
ween	-972
▁cr	-973
▁art	-974
ather	-975
▁school	-976
ited	-977
▁第	-978
▁high	-979
uc	-980
帮助	-981
▁used	-982
作为	-983
▁comple	-984
▁place	-985
ward	-986
atch	-987
ng	-988
的问题	-989
▁imag	-990
▁commun	-991
iss	-992
决定	-993
▁str	-994
▁learn	-995
meric	-996
▁between	-997
cy	-998
read	-999
ah	-1000
简单	-1001
az	-1002
有一个	-1003
情况	-1004
ized	-1005
▁develop	-1006
机器	-1007
看看	-1008
ience	-1009
▁each	-1010
的地方	-1011
▁water	-1012
为了	-1013
ork	-1014
▁ser	-1015
也是	-1016
▁ext	-1017
▁technology	-1018
了解	-1019
▁When	-1020
实验	-1021
ram	-1022
ness	-1023
▁looking	-1024
▁ter	-1025
▁question	-1026
▁还有	-1027
▁data	-1028
得到	-1029
城市	-1030
组织	-1031
结果	-1032
▁att	-1033
▁都	-1034
▁大	-1035
▁small	-1036
▁four	-1037
ures	-1038
ways	-1039
不同的	-1040
▁med	-1041
▁done	-1042
▁Americ	-1043
想法	-1044
arch	-1045
cond	-1046
动物	-1047
是在	-1048
▁old	-1049
ced	-1050
▁comput	-1051
那里	-1052
如此	-1053
两个	-1054
事情	-1055
▁cre	-1056
时候	-1057
过去	-1058
▁example	-1059
细胞	-1060
▁fin	-1061
▁grow	-1062
▁partic	-1063
ets	-1064
ific	-1065
▁op	-1066
formation	-1067
▁你们	-1068
许多	-1069
▁cell	-1070
相信	-1071
▁love	-1072
▁doesn	-1073
▁care	-1074
意识	-1075
ered	-1076
▁min	-1077
一直	-1078
▁la	-1079
oney	-1080
▁move	-1081
▁Because	-1082
ute	-1083
iness	-1084
▁read	-1085
▁met	-1086
▁rec	-1087
选择	-1088
▁cent	-1089
环境	-1090
▁word	-1091
▁whole	-1092
▁V	-1093
ative	-1094
仅仅	-1095
ably	-1096
cept	-1097
ings	-1098
▁stu	-1099
▁light	-1100
照片	-1101
整个	-1102
▁How	-1103
有一	-1104
▁wanted	-1105
之前	-1106
▁以及	-1107
▁eff	-1108
产生	-1109
▁mom	-1110
过程	-1111
变得	-1112
▁reas	-1113
感觉	-1114
conom	-1115
▁hard	-1116
项目	-1117
ger	-1118
▁4	-1119
政府	-1120
selves	-1121
▁lar	-1122
ross	-1123
▁bi	-1124
性的	-1125
▁ear	-1126
▁ever	-1127
就会	-1128
艺术	-1129
年前	-1130
▁million	-1131
▁always	-1132
▁chang	-1133
10	-1134
▁giv	-1135
▁trying	-1136
▁nat	-1137
▁away	-1138
cer	-1139
不知道	-1140
下来	-1141
▁poss	-1142
▁beh	-1143
▁women	-1144
方面	-1145
▁el	-1146
▁gener	-1147
原因	-1148
▁的	-1149
ote	-1150
▁bus	-1151
▁children	-1152
▁live	-1153
ism	-1154
here	-1155
ope	-1156
的话	-1157
▁working	-1158
▁sk	-1159
ands	-1160
▁far	-1161
于是	-1162
▁rep	-1163
▁believe	-1164
▁你可以	-1165
▁econom	-1166
▁Afric	-1167
出来	-1168
来自	-1169
之间	-1170
▁expl	-1171
想象	-1172
gin	-1173
▁cap	-1174
▁less	-1175
▁money	-1176
▁country	-1177
▁resp	-1178
例子	-1179
拥有	-1180
ont	-1181
▁book	-1182
想要	-1183
▁information	-1184
地球	-1185
ments	-1186
▁ed	-1187
ird	-1188
ational	-1189
▁pict	-1190
理解	-1191
ruct	-1192
▁supp	-1193
自然	-1194
▁using	-1195
ural	-1196
▁health	-1197
▁Un	-1198
▁anim	-1199
▁fo	-1200
▁或	-1201
我在	-1202
ock	-1203
只有	-1204
之一	-1205
全球	-1206
▁project	-1207
▁thinking	-1208
网络	-1209
▁sub	-1210
vers	-1211
▁run	-1212
▁doll	-1213
▁five	-1214
展示	-1215
atter	-1216
无法	-1217
能力	-1218
▁inf	-1219
那么	-1220
ps	-1221
朋友	-1222
nce	-1223
▁好	-1224
学习	-1225
▁organ	-1226
▁vis	-1227
▁maybe	-1228
▁用	-1229
▁open	-1230
▁took	-1231
▁kids	-1232
是什么	-1233
nect	-1234
ract	-1235
▁As	-1236
▁谢谢	-1237
ries	-1238
vern	-1239
运动	-1240
air	-1241
▁space	-1242
19	-1243
led	-1244
计算	-1245
oy	-1246
找到	-1247
变化	-1248
▁means	-1249
hip	-1250
它的	-1251
提供	-1252
rib	-1253
▁cor	-1254
▁process	-1255
▁number	-1256
▁人们	-1257
变成	-1258
▁second	-1259
▁cou	-1260
▁去	-1261
非洲	-1262
行为	-1263
▁Ind	-1264
▁everything	-1265
▁可以	-1266
▁于是	-1267
iron	-1268
▁frie	-1269
▁lead	-1270
its	-1271
▁prob	-1272
▁become	-1273
▁create	-1274
▁hand	-1275
对于	-1276
▁compan	-1277
▁One	-1278
▁spec	-1279
ten	-1280
gg	-1281
里的	-1282
▁home	-1283
▁mind	-1284
是个	-1285
▁pub	-1286
▁事实上	-1287
▁acc	-1288
▁当然	-1289
ital	-1290
▁mus	-1291
▁把	-1292
ident	-1293
意思	-1294
alf	-1295
▁reg	-1296
▁interesting	-1297
ks	-1298
▁walk	-1299
建筑	-1300
aces	-1301
一点	-1302
▁fut	-1303
ues	-1304
▁200	-1305
▁—	-1306
ergy	-1307
ever	-1308
ond	-1309
美元	-1310
▁head	-1311
▁quite	-1312
▁teach	-1313
▁best	-1314
基本	-1315
▁form	-1316
▁eng	-1317
▁prog	-1318
▁pres	-1319
▁future	-1320
的方式	-1321
关系	-1322
▁enough	-1323
并不	-1324
▁fun	-1325
▁left	-1326
ention	-1327
ouse	-1328
▁war	-1329
▁sense	-1330
▁cle	-1331
▁govern	-1332
成功	-1333
iew	-1334
▁dem	-1335
aut	-1336
ivers	-1337
▁comes	-1338
▁getting	-1339
▁sing	-1340
▁这样	-1341
sw	-1342
教育	-1343
如果你	-1344
▁(	-1345
ines	-1346
▁food	-1347
▁grou	-1348
学家	-1349
▁要	-1350
电脑	-1351
▁set	-1352
▁These	-1353
▁happened	-1354
思考	-1355
▁My	-1356
▁month	-1357
pr	-1358
▁这种	-1359
▁比如	-1360
▁energy	-1361
声音	-1362
▁body	-1363
ety	-1364
▁stuff	-1365
ts	-1366
▁ca	-1367
iting	-1368
▁conf	-1369
是一	-1370
▁contro	-1371
▁elect	-1372
ier	-1373
ertain	-1374
▁times	-1375
▁making	-1376
音乐	-1377
▁probably	-1378
▁我们的	-1379
▁talking	-1380
学校	-1381
▁那些	-1382
▁answ	-1383
▁begin	-1384
将会	-1385
ories	-1386
▁dollars	-1387
NA	-1388
学生	-1389
利用	-1390
▁pass	-1391
reen	-1392
▁social	-1393
基因	-1394
tty	-1395
出现	-1396
科技	-1397
ient	-1398
...	-1399
60	-1400
演讲	-1401
身体	-1402
印度	-1403
▁就像	-1404
kay	-1405
怎样	-1406
▁env	-1407
▁room	-1408
▁sign	-1409
控制	-1410
▁Here	-1411
让我	-1412
imes	-1413
▁without	-1414
有趣	-1415
▁没有	-1416
历史	-1417
的一个	-1418
▁glob	-1419
安全	-1420
▁pop	-1421
▁else	-1422
空间	-1423
▁connect	-1424
意义	-1425
▁reason	-1426
▁会	-1427
▁keep	-1428
▁She	-1429
▁mark	-1430
ices	-1431
▁soci	-1432
▁half	-1433
▁pretty	-1434
▁side	-1435
▁cur	-1436
▁building	-1437
游戏	-1438
▁business	-1439
▁job	-1440
▁dist	-1441
ogra	-1442
▁moment	-1443
▁told	-1444
▁wee	-1445
▁wo	-1446
▁pie	-1447
▁allow	-1448
▁anything	-1449
以及	-1450
复杂	-1451
就像	-1452
▁gr	-1453
制造	-1454
▁model	-1455
ner	-1456
▁An	-1457
me	-1458
经历	-1459
▁def	-1460
另一个	-1461
▁lives	-1462
▁Is	-1463
ately	-1464
▁beaut	-1465
▁environ	-1466
▁coming	-1467
irl	-1468
▁add	-1469
▁hist	-1470
▁phys	-1471
令人	-1472
ake	-1473
各种	-1474
▁ty	-1475
▁top	-1476
▁says	-1477
件事	-1478
意味	-1479
的时间	-1480
▁opp	-1481
▁across	-1482
世纪	-1483
ior	-1484
▁bad	-1485
所有的	-1486
uring	-1487
▁Chin	-1488
▁很	-1489
▁such	-1490
▁countries	-1491
未来	-1492
▁Let	-1493
idd	-1494
▁young	-1495
▁这里	-1496
机会	-1497
▁saw	-1498
▁prot	-1499
▁For	-1500
ortun	-1501
▁science	-1502
医生	-1503
把它	-1504
ember	-1505
我们可以	-1506
▁与	-1507
完成	-1508
特别	-1509
▁sound	-1510
其实	-1511
▁aut	-1512
man	-1513
▁ord	-1514
▁makes	-1515
olution	-1516
▁matter	-1517
建立	-1518
▁Africa	-1519
做了	-1520
▁ey	-1521
▁All	-1522
▁stand	-1523
▁New	-1524
▁particular	-1525
最后	-1526
让我们	-1527
gs	-1528
其中	-1529
是否	-1530
确实	-1531
▁stop	-1532
▁eas	-1533
健康	-1534
ality	-1535
▁bring	-1536
▁fig	-1537
▁rese	-1538
在一起	-1539
▁我认为	-1540
尝试	-1541
语言	-1542
多少	-1543
lf	-1544
有些	-1545
ided	-1546
▁我们可以	-1547
重要的	-1548
说的	-1549
ov	-1550
▁hope	-1551
▁happens	-1552
中国	-1553
ization	-1554
ash	-1555
▁case	-1556
▁goes	-1557
▁所有	-1558
▁char	-1559
▁simple	-1560
ead	-1561
▁val	-1562
▁seen	-1563
▁hour	-1564
▁wonder	-1565
ince	-1566
意味着	-1567
most	-1568
ime	-1569
▁ways	-1570
▁picture	-1571
多数	-1572
文化	-1573
▁即	-1574
80	-1575
ots	-1576
ott	-1577
▁living	-1578
你可以	-1579
年的	-1580
当时	-1581
▁所以我	-1582
▁later	-1583
▁air	-1584
▁having	-1585
宇宙	-1586
where	-1587
▁scient	-1588
ying	-1589
▁cam	-1590
▁phot	-1591
感到	-1592
神经	-1593
▁experience	-1594
另外	-1595
小时	-1596
所以	-1597
llow	-1598
主义	-1599
angu	-1600
▁computer	-1601
ective	-1602
▁正	-1603
合作	-1604
▁problems	-1605
arth	-1606
▁research	-1607
ken	-1608
▁share	-1609
▁sit	-1610
政治	-1611
模式	-1612
注意	-1613
▁environment	-1614
30	-1615
进入	-1616
▁polit	-1617
▁col	-1618
▁global	-1619
意识到	-1620
▁asked	-1621
活动	-1622
▁不过	-1623
参与	-1624
女性	-1625
ins	-1626
▁educ	-1627
▁fore	-1628
▁family	-1629
几个	-1630
▁cult	-1631
▁days	-1632
▁thous	-1633
io	-1634
▁接	-1635
食物	-1636
▁men	-1637
▁rob	-1638
▁complete	-1639
保护	-1640
▁saying	-1641
小的	-1642
ograph	-1643
ike	-1644
▁mem	-1645
中心	-1646
另一	-1647
我们在	-1648
iter	-1649
计划	-1650
▁通过	-1651
也许	-1652
继续	-1653
价值	-1654
获得	-1655
aps	-1656
ulation	-1657
▁det	-1658
▁six	-1659
▁level	-1660
▁将	-1661
▁No	-1662
▁TED	-1663
▁mor	-1664
▁Se	-1665
▁rest	-1666
ilt	-1667
▁langu	-1668
▁billion	-1669
治疗	-1670
▁只	-1671
orn	-1672
▁list	-1673
▁mach	-1674
▁single	-1675
▁equ	-1676
▁这是一个	-1677
▁prof	-1678
▁both	-1679
▁9	-1680
世界上	-1681
解释	-1682
第一	-1683
▁30	-1684
▁[	-1685
工具	-1686
▁amaz	-1687
▁watch	-1688
看起来	-1689
▁certain	-1690
联系	-1691
▁test	-1692
▁planet	-1693
才能	-1694
目标	-1695
ught	-1696
unch	-1697
我要	-1698
ready	-1699
▁inside	-1700
ream	-1701
▁sure	-1702
▁同时	-1703
▁basically	-1704
▁ref	-1705
▁city	-1706
▁bre	-1707
▁dise	-1708
arr	-1709
▁为什么	-1710
叫做	-1711
▁hu	-1712
▁looked	-1713
ants	-1714
▁vide	-1715
ivid	-1716
▁guy	-1717
▁while	-1718
▁public	-1719
▁Earth	-1720
▁50	-1721
▁yet	-1722
作用	-1723
▁once	-1724
量的	-1725
是我们	-1726
allen	-1727
▁almost	-1728
地区	-1729
med	-1730
itive	-1731
▁ideas	-1732
▁answer	-1733
▁Al	-1734
疾病	-1735
▁whether	-1736
▁hear	-1737
▁disco	-1738
"。	-1739
有人	-1740
arent	-1741
▁'	-1742
更加	-1743
ury	-1744
less	-1745
▁already	-1746
重新	-1747
▁我在	-1748
▁control	-1749
osed	-1750
▁looks	-1751
▁within	-1752
▁wrong	-1753
▁到	-1754
▁suc	-1755
▁mil	-1756
▁dev	-1757
▁possible	-1758
市场	-1759
▁often	-1760
▁treat	-1761
三个	-1762
生产	-1763
ases	-1764
▁cost	-1765
▁heart	-1766
▁age	-1767
数字	-1768
▁incred	-1769
电影	-1770
▁cells	-1771
领域	-1772
首先	-1773
▁contin	-1774
work	-1775
▁exc	-1776
▁product	-1777
▁lab	-1778
处理	-1779
▁amazing	-1780
▁someone	-1781
分钟	-1782
▁iss	-1783
▁dire	-1784
cle	-1785
lish	-1786
side	-1787
孩子们	-1788
▁self	-1789
大学	-1790
回到	-1791
oice	-1792
▁loc	-1793
同样	-1794
▁remember	-1795
产品	-1796
▁非常	-1797
aterial	-1798
机器人	-1799
家庭	-1800
就可以	-1801
▁large	-1802
几乎	-1803
里面	-1804
ene	-1805
▁100	-1806
▁figure	-1807
▁nothing	-1808
作品	-1809
▁history	-1810
包括	-1811
200	-1812
▁但我	-1813
ield	-1814
▁exact	-1815
ware	-1816
▁par	-1817
utes	-1818
反应	-1819
▁wa	-1820
▁pain	-1821
▁所以我们	-1822
▁再	-1823
▁而是	-1824
看到的	-1825
▁beautif	-1826
▁heard	-1827
年代	-1828
▁unt	-1829
然而	-1830
▁challen	-1831
就能	-1832
曾经	-1833
答案	-1834
观察	-1835
eah	-1836
▁girl	-1837
▁如果我们	-1838
▁music	-1839
▁Why	-1840
▁ass	-1841
Wh	-1842
努力	-1843
▁7	-1844
ters	-1845
▁adv	-1846
出了	-1847
接受	-1848
▁night	-1849
有点	-1850
结构	-1851
▁news	-1852
▁true	-1853
▁group	-1854
▁months	-1855
实现	-1856
死亡	-1857
▁kill	-1858
▁Or	-1859
更多的	-1860
undred	-1861
▁individ	-1862
ages	-1863
一定	-1864
相当	-1865
uck	-1866
ering	-1867
▁government	-1868
iddle	-1869
▁couple	-1870
但是	-1871
讨论	-1872
▁imagine	-1873
有了	-1874
ians	-1875
▁works	-1876
汽车	-1877
vious	-1878
▁face	-1879
▁entire	-1880
▁mag	-1881
▁cancer	-1882
▁community	-1883
关注	-1884
并不是	-1885
bs	-1886
▁myself	-1887
ling	-1888
imate	-1889
▁words	-1890
▁United	-1891
十分	-1892
制作	-1893
太阳	-1894
年轻	-1895
都会	-1896
iverse	-1897
ex	-1898
持续	-1899
atic	-1900
land	-1901
ivity	-1902
▁对于	-1903
de	-1904
▁fil	-1905
▁material	-1906
区域	-1907
容易	-1908
ired	-1909
▁hundred	-1910
某种	-1911
▁che	-1912
▁实际上	-1913
▁individual	-1914
▁net	-1915
▁Intern	-1916
分享	-1917
▁然而	-1918
▁aff	-1919
过的	-1920
百万	-1921
up	-1922
感谢	-1923
▁sw	-1924
▁state	-1925
▁di	-1926
▁ret	-1927
▁line	-1928
▁class	-1929
在这里	-1930
▁full	-1931
精神	-1932
▁最后	-1933
▁inn	-1934
▁beautiful	-1935
自由	-1936
ected	-1937
▁front	-1938
在这	-1939
outh	-1940
▁must	-1941
▁order	-1942
兴趣	-1943
观众	-1944
准备	-1945
力量	-1946
那样	-1947
▁follow	-1948
ives	-1949
▁dra	-1950
▁built	-1951
▁language	-1952
▁更	-1953
都有	-1954
服务	-1955
▁你会	-1956
▁5	-1957
get	-1958
▁pay	-1959
她的	-1960
▁也许	-1961
▁cond	-1962
ustr	-1963
to	-1964
ats	-1965
▁sec	-1966
病毒	-1967
bers	-1968
▁tre	-1969
▁everybody	-1970
总是	-1971
▁piece	-1972
▁wasn	-1973
▁可	-1974
带来	-1975
资源	-1976
▁incre	-1977
▁species	-1978
色的	-1979
▁result	-1980
▁当我	-1981
显示	-1982
认识	-1983
ron	-1984
▁const	-1985
▁被	-1986
▁Fr	-1987
▁还	-1988
挑战	-1989
▁though	-1990
▁当你	-1991
▁decided	-1992
不可	-1993
成的	-1994
ush	-1995
战争	-1996
发明	-1997
▁video	-1998
▁vir	-1999
▁view	-2000
▁struct	-2001
uro	-2002
▁quick	-2003
▁train	-2004
代表	-2005
▁tool	-2006
▁object	-2007
▁taking	-2008
明白	-2009
ane	-2010
omes	-2011
出的	-2012
▁until	-2013
▁像	-2014
▁ris	-2015
▁deep	-2016
▁appro	-2017
aper	-2018
这个问题	-2019
▁completely	-2020
的大	-2021
行动	-2022
▁cra	-2023
▁z	-2024
模型	-2025
当然	-2026
▁name	-2027
▁甚至	-2028
的方法	-2029
▁abs	-2030
类似	-2031
▁sca	-2032
TED	-2033
增长	-2034
▁让我们	-2035
▁became	-2036
程度	-2037
ined	-2038
▁isn	-2039
▁deal	-2040
▁gets	-2041
▁States	-2042
▁fund	-2043
我说	-2044
end	-2045
▁law	-2046
▁happening	-2047
▁为	-2048
根本	-2049
▁itself	-2050
▁能	-2051
▁spend	-2052
▁places	-2053
▁society	-2054
分子	-2055
ctor	-2056
line	-2057
▁huge	-2058
▁past	-2059
▁nature	-2060
15	-2061
主要	-2062
比较	-2063
▁land	-2064
ones	-2065
aster	-2066
▁friends	-2067
▁themselves	-2068
▁看	-2069
巨大的	-2070
cing	-2071
▁experim	-2072
知识	-2073
▁kinds	-2074
br	-2075
ocus	-2076
▁也就是	-2077
的故事	-2078
▁exactly	-2079
▁15	-2080
ision	-2081
▁knew	-2082
▁India	-2083
▁ourselves	-2084
超过	-2085
通常	-2086
ients	-2087
▁Internet	-2088
aw	-2089
多的	-2090
直到	-2091
▁behav	-2092
▁market	-2093
▁learned	-2094
▁somebody	-2095
来越	-2096
rop	-2097
▁pos	-2098
唯一	-2099
etic	-2100
▁America	-2101
▁complex	-2102
",	-2103
去了	-2104
病人	-2105
▁At	-2106
▁woman	-2107
第二	-2108
发生了	-2109
gest	-2110
ogn	-2111
▁house	-2112
▁engine	-2113
▁success	-2114
▁Every	-2115
dd	-2116
社区	-2117
越来越	-2118
现实	-2119
▁无	-2120
考虑	-2121
视频	-2122
▁stre	-2123
▁meet	-2124
▁study	-2125
支持	-2126
观点	-2127
可能会	-2128
理论	-2129
基础	-2130
虽然	-2131
▁Do	-2132
▁OK	-2133
▁animals	-2134
上面	-2135
概念	-2136
身上	-2137
是因为	-2138
寻找	-2139
都在	-2140
▁dru	-2141
▁focus	-2142
▁education	-2143
不到	-2144
▁stories	-2145
sy	-2146
真实	-2147
acter	-2148
ental	-2149
是我	-2150
▁free	-2151
▁ones	-2152
▁since	-2153
母亲	-2154
计算机	-2155
itting	-2156
▁questions	-2157
▁along	-2158
▁minutes	-2159
力的	-2160
▁universe	-2161
百分	-2162
的人们	-2163
ional	-2164
ien	-2165
▁av	-2166
▁那就是	-2167
工程	-2168
并且	-2169
材料	-2170
▁God	-2171
自我	-2172
ature	-2173
▁clear	-2174
以前	-2175
成了	-2176
▁close	-2177
▁company	-2178
gle	-2179
一个人	-2180
办法	-2181
每个	-2182
电话	-2183
的小	-2184
urs	-2185
eg	-2186
face	-2187
▁我们在	-2188
▁Okay	-2189
不断	-2190
化的	-2191
目前	-2192
omet	-2193
▁meas	-2194
▁terr	-2195
▁hours	-2196
cc	-2197
能源	-2198
cl	-2199
科学家	-2200
▁opportun	-2201
纽约	-2202
att	-2203
▁Ar	-2204
ator	-2205
▁fly	-2206
▁mess	-2207
▁mother	-2208
▁against	-2209
icult	-2210
ium	-2211
▁Br	-2212
▁mic	-2213
▁disease	-2214
▁sometimes	-2215
▁使	-2216
▁mass	-2217
▁rather	-2218
传统	-2219
▁关于	-2220
在一个	-2221
▁game	-2222
▁created	-2223
thers	-2224
▁innov	-2225
的工作	-2226
机构	-2227
很多人	-2228
▁early	-2229
▁Sh	-2230
▁其中	-2231
▁其实	-2232
▁我们需要	-2233
▁couldn	-2234
▁invest	-2235
第一个	-2236
haps	-2237
ability	-2238
▁won	-2239
▁worked	-2240
ames	-2241
▁team	-2242
▁turns	-2243
做到	-2244
结束	-2245
听到	-2246
有个	-2247
女孩	-2248
wards	-2249
▁third	-2250
同样的	-2251
▁speak	-2252
大概	-2253
清楚	-2254
用的	-2255
istic	-2256
▁guys	-2257
▁amount	-2258
图片	-2259
iqu	-2260
▁Then	-2261
▁bott	-2262
ibly	-2263
每个人	-2264
▁China	-2265
▁least	-2266
ee	-2267
别人	-2268
哪里	-2269
有关	-2270
▁ill	-2271
▁pred	-2272
▁prov	-2273
▁liter	-2274
iversity	-2275
记录	-2276
▁hold	-2277
▁wind	-2278
▁lots	-2279
投资	-2280
▁如	-2281
▁说	-2282
▁program	-2283
▁difficult	-2284
尽管	-2285
英国	-2286
cul	-2287
仅仅是	-2288
▁Can	-2289
飞行	-2290
角度	-2291
在这个	-2292
▁ant	-2293
▁cir	-2294
▁black	-2295
做出	-2296
物质	-2297
▁...	-2298
▁rad	-2299
▁thousands	-2300
测试	-2301
离开	-2302
▁var	-2303
▁Some	-2304
▁others	-2305
▁gave	-2306
关键	-2307
当你	-2308
最终	-2309
▁students	-2310
▁mot	-2311
olved	-2312
▁sens	-2313
医疗	-2314
有的	-2315
▁norm	-2316
电视	-2317
The	-2318
ider	-2319
ented	-2320
▁everyone	-2321
一位	-2322
媒体	-2323
愿意	-2324
app	-2325
▁他说	-2326
▁给	-2327
大约	-2328
▁今天	-2329
vered	-2330
▁ve	-2331
▁miss	-2332
充满	-2333
也不	-2334
得不	-2335
移动	-2336
▁American	-2337
▁learning	-2338
▁relations	-2339
受到	-2340
设备	-2341
▁difference	-2342
▁aud	-2343
▁interact	-2344
民主	-2345
▁parent	-2346
ted	-2347
实验室	-2348
ples	-2349
ially	-2350
ological	-2351
▁outside	-2352
海洋	-2353
手机	-2354
▁不是	-2355
▁network	-2356
▁bab	-2357
▁arch	-2358
▁math	-2359
第一次	-2360
ming	-2361
▁York	-2362
名字	-2363
谈论	-2364
错误	-2365
▁18	-2366
ination	-2367
一切	-2368
速度	-2369
ale	-2370
▁大家	-2371
▁area	-2372
▁systems	-2373
应用	-2374
这就是	-2375
▁happy	-2376
▁middle	-2377
你知道	-2378
▁oil	-2379
illions	-2380
你会	-2381
utions	-2382
▁taken	-2383
▁field	-2384
▁instead	-2385
大多数	-2386
▁cut	-2387
▁shap	-2388
仍然	-2389
就在	-2390
11	-2391
40	-2392
▁由	-2393
▁hy	-2394
▁natural	-2395
电子	-2396
▁dig	-2397
▁oce	-2398
定的	-2399
erv	-2400
▁作为	-2401
▁当我们	-2402
▁extra	-2403
ential	-2404
▁Pe	-2405
▁typ	-2406
aking	-2407
▁beginning	-2408
相关	-2409
试图	-2410
▁bro	-2411
▁pot	-2412
记得	-2413
ully	-2414
▁listen	-2415
▁recent	-2416
not	-2417
有很多	-2418
ared	-2419
oh	-2420
▁fail	-2421
▁century	-2422
一天	-2423
▁eyes	-2424
内容	-2425
ern	-2426
▁step	-2427
▁seven	-2428
▁behavior	-2429
ey	-2430
父亲	-2431
看见	-2432
ides	-2433
▁exist	-2434
▁changed	-2435
▁pattern	-2436
证明	-2437
领导	-2438
▁del	-2439
▁da	-2440
▁record	-2441
我不	-2442
癌症	-2443
▁rev	-2444
▁given	-2445
▁green	-2446
回答	-2447
后来	-2448
ither	-2449
有效	-2450
正确	-2451
els	-2452
▁Eng	-2453
世界的	-2454
儿童	-2455
她们	-2456
一样的	-2457
人口	-2458
导致	-2459
想到	-2460
100	-2461
▁为了	-2462
做什么	-2463
我认为	-2464
▁jour	-2465
等等	-2466
sych	-2467
inary	-2468
▁yourself	-2469
ove	-2470
简单的	-2471
鼓掌	-2472
▁lim	-2473
▁non	-2474
▁machine	-2475
增加	-2476
数学	-2477
面对	-2478
uss	-2479
我们所	-2480
ased	-2481
▁population	-2482
手术	-2483
每天	-2484
orth	-2485
▁death	-2486
▁wonderful	-2487
ero	-2488
是如何	-2489
▁sym	-2490
▁oper	-2491
▁Euro	-2492
▁short	-2493
而言	-2494
连接	-2495
▁我要	-2496
aring	-2497
▁incl	-2498
▁leave	-2499
▁effect	-2500
▁takes	-2501
era	-2502
并没有	-2503
▁pick	-2504
olute	-2505
很好	-2506
物种	-2507
jor	-2508
▁40	-2509
▁common	-2510
至少	-2511
▁hands	-2512
▁moving	-2513
com	-2514
▁obvious	-2515
创新	-2516
而且	-2517
ret	-2518
▁我说	-2519
不可能	-2520
▁cities	-2521
12	-2522
▁es	-2523
足够	-2524
▁low	-2525
例如	-2526
管理	-2527
rew	-2528
!"	-2529
放在	-2530
fect	-2531
▁tem	-2532
具有	-2533
用来	-2534
▁red	-2535
保持	-2536
gen	-2537
iol	-2538
ipp	-2539
▁第二	-2540
▁turned	-2541
itch	-2542
verage	-2543
▁during	-2544
▁explain	-2545
▁support	-2546
给你们	-2547
▁leg	-2548
▁saf	-2549
▁sex	-2550
ption	-2551
时代	-2552
植物	-2553
▁parts	-2554
也会	-2555
宗教	-2556
▁我不	-2557
▁sent	-2558
▁eight	-2559
▁ident	-2560
▁needs	-2561
下的	-2562
企业	-2563
You	-2564
ump	-2565
真正的	-2566
让人	-2567
▁fre	-2568
▁easy	-2569
共同	-2570
方向	-2571
▁intell	-2572
ony	-2573
▁jo	-2574
▁terms	-2575
astic	-2576
能量	-2577
范围	-2578
▁finally	-2579
ann	-2580
ply	-2581
▁trad	-2582
▁colle	-2583
▁perhaps	-2584
女人	-2585
▁occ	-2586
▁relationship	-2587
样子	-2588
网站	-2589
达到	-2590
▁psych	-2591
▁communic	-2592
ude	-2593
▁12	-2594
Well	-2595
▁major	-2596
▁companies	-2597
上去	-2598
功能	-2599
父母	-2600
▁seeing	-2601
▁culture	-2602
联网	-2603
ges	-2604
▁Not	-2605
▁behind	-2606
了我	-2607
形式	-2608
也有	-2609
某些	-2610
飞机	-2611
交流	-2612
建造	-2613
百分之	-2614
的一部分	-2615
▁size	-2616
▁Europe	-2617
▁friend	-2618
▁needed	-2619
▁realized	-2620
本身	-2621
▁serv	-2622
到底	-2623
了这个	-2624
reme	-2625
ource	-2626
▁robot	-2627
我是	-2628
▁首先	-2629
▁emot	-2630
▁began	-2631
体的	-2632
▁dep	-2633
▁pract	-2634
▁repres	-2635
我会	-2636
看着	-2637
ery	-2638
基本上	-2639
▁super	-2640
利亚	-2641
给我	-2642
老师	-2643
▁reach	-2644
开发	-2645
是很	-2646
直接	-2647
▁On	-2648
▁image	-2649
减少	-2650
在我	-2651
之间的	-2652
告诉你	-2653
▁simply	-2654
90	-2655
公共	-2656
其它	-2657
明显	-2658
现象	-2659
的世界	-2660
▁arg	-2661
iving	-2662
进化	-2663
随着	-2664
▁impro	-2665
是一种	-2666
▁access	-2667
▁present	-2668
▁6	-2669
▁tot	-2670
▁chem	-2671
itions	-2672
elt	-2673
fully	-2674
year	-2675
▁因为我们	-2676
▁whatever	-2677
以后	-2678
我就	-2679
▁grand	-2680
一步	-2681
十年	-2682
▁你知道	-2683
▁而不是	-2684
▁father	-2685
▁absolute	-2686
下面	-2687
分析	-2688
ton	-2689
▁Just	-2690
▁cannot	-2691
▁interested	-2692
▁-	-2693
团队	-2694
最大的	-2695
▁ple	-2696
bo	-2697
▁一些	-2698
的情况	-2699
ison	-2700
▁ess	-2701
▁sun	-2702
突然	-2703
▁emb	-2704
▁key	-2705
▁event	-2706
物理	-2707
ax	-2708
药物	-2709
▁To	-2710
人员	-2711
危险	-2712
商业	-2713
互联网	-2714
port	-2715
▁stay	-2716
▁democ	-2717
探索	-2718
数量	-2719
的原因	-2720
▁squ	-2721
▁break	-2722
石油	-2723
规模	-2724
▁week	-2725
▁paper	-2726
▁longer	-2727
▁powerful	-2728
表现	-2729
▁dream	-2730
▁famil	-2731
坐在	-2732
更好	-2733
永远	-2734
▁gone	-2735
rought	-2736
▁local	-2737
▁recogn	-2738
ney	-2739
rodu	-2740
ising	-2741
▁surv	-2742
▁surpr	-2743
来看	-2744
▁Z	-2745
刚刚	-2746
周围	-2747
尼亚	-2748
气候	-2749
ode	-2750
▁我是	-2751
▁DNA	-2752
▁expect	-2753
70	-2754
不要	-2755
▁buy	-2756
itect	-2757
ledge	-2758
oph	-2759
▁Chr	-2760
▁fall	-2761
▁special	-2762
▁wall	-2763
ources	-2764
sh	-2765
一张	-2766
avor	-2767
▁civ	-2768
▁scale	-2769
斯坦	-2770
▁当时	-2771
ilar	-2772
orld	-2773
oogle	-2774
▁requ	-2775
▁structure	-2776
amp	-2777
▁relig	-2778
▁perfect	-2779
上帝	-2780
收入	-2781
crib	-2782
▁conv	-2783
▁situ	-2784
idence	-2785
▁press	-2786
▁tried	-2787
▁growth	-2788
cr	-2789
▁我觉得	-2790
cious	-2791
▁media	-2792
▁spent	-2793
▁consum	-2794
给你	-2795
过来	-2796
道德	-2797
osp	-2798
inal	-2799
▁priv	-2800
▁phone	-2801
▁Tw	-2802
▁即使	-2803
有什么	-2804
▁political	-2805
其他的	-2806
rent	-2807
▁vers	-2808
▁ground	-2809
困难	-2810
经常	-2811
▁People	-2812
▁quickly	-2813
▁personal	-2814
▁eat	-2815
型的	-2816
男人	-2817
▁因为我	-2818
▁shows	-2819
ologies	-2820
▁measure	-2821
▁perform	-2822
位置	-2823
ged	-2824
最好的	-2825
消息	-2826
ole	-2827
urb	-2828
▁cal	-2829
▁虽然	-2830
ards	-2831
hood	-2832
▁May	-2833
▁sitting	-2834
拍摄	-2835
相同	-2836
眼睛	-2837
者的	-2838
▁让我	-2839
▁weeks	-2840
bor	-2841
▁poor	-2842
▁known	-2843
▁economy	-2844
▁economic	-2845
ik	-2846
lt	-2847
▁除	-2848
个月	-2849
程序	-2850
▁Right	-2851
事物	-2852
告诉我	-2853
▁fear	-2854
ibility	-2855
▁direct	-2856
不再	-2857
在于	-2858
ler	-2859
人都	-2860
▁他们的	-2861
▁draw	-2862
▁animal	-2863
心理	-2864
让你	-2865
▁我会	-2866
▁但我们	-2867
对我	-2868
很难	-2869
▁已经	-2870
ills	-2871
▁yes	-2872
传播	-2873
ised	-2874
如果我们	-2875
▁opportunity	-2876
oll	-2877
▁你的	-2878
▁美国	-2879
▁dark	-2880
▁feed	-2881
▁insp	-2882
▁lost	-2883
▁viol	-2884
方案	-2885
ift	-2886
▁有些	-2887
▁approach	-2888
▁想	-2889
欧洲	-2890
▁cool	-2891
▁blood	-2892
▁travel	-2893
▁risk	-2894
▁architect	-2895
ev	-2896
有着	-2897
▁felt	-2898
▁parents	-2899
▁protect	-2900
▁blue	-2901
▁humans	-2902
严重	-2903
地图	-2904
难以	-2905
很有	-2906
也可以	-2907
▁leaders	-2908
▁photograph	-2909
ived	-2910
▁send	-2911
▁obs	-2912
预测	-2913
▁cy	-2914
▁尽管	-2915
ators	-2916
▁ability	-2917
▁extreme	-2918
▁respons	-2919
现代	-2920
▁dest	-2921
▁mult	-2922
▁strong	-2923
▁请	-2924
表达	-2925
要求	-2926
▁它是	-2927
izing	-2928
它是	-2929
room	-2930
▁near	-2931
▁fight	-2932
加入	-2933
定义	-2934
正常	-2935
这一点	-2936
▁feet	-2937
▁pull	-2938
▁incredible	-2939
▁har	-2940
cially	-2941
▁changes	-2942
一年	-2943
地的	-2944
担心	-2945
根据	-2946
▁ge	-2947
▁可能	-2948
ouch	-2949
▁value	-2950
▁surface	-2951
▁attention	-2952
▁evolution	-2953
▁在我	-2954
ales	-2955
ule	-2956
uth	-2957
▁patients	-2958
▁mov	-2959
▁ocean	-2960
▁impact	-2961
▁indust	-2962
▁morning	-2963
阶段	-2964
▁能够	-2965
大部分	-2966
▁anal	-2967
▁foot	-2968
▁orig	-2969
▁brought	-2970
在那	-2971
来到	-2972
▁predict	-2973
18	-2974
子的	-2975
确定	-2976
ains	-2977
ateg	-2978
▁areas	-2979
▁based	-2980
▁wouldn	-2981
更好的	-2982
leep	-2983
uses	-2984
▁enc	-2985
▁那是	-2986
lect	-2987
▁fast	-2988
▁soft	-2989
entially	-2990
当我	-2991
肯定	-2992
出来的	-2993
▁sum	-2994
会有	-2995
似乎	-2996
信号	-2997
erm	-2998
ral	-2999
▁nice	-3000
iny	-3001
过程中	-3002
ances	-3003
ument	-3004
▁bottom	-3005
▁either	-3006
子里	-3007
状态	-3008
试着	-3009
感兴趣	-3010
▁comb	-3011
相互	-3012
行的	-3013
▁redu	-3014
zy	-3015
妈妈	-3016
幸福	-3017
思想	-3018
目的	-3019
vent	-3020
▁film	-3021
▁mole	-3022
eed	-3023
问题是	-3024
我们需要	-3025
▁write	-3026
▁8	-3027
形成	-3028
快乐	-3029
长的	-3030
hor	-3031
人类的	-3032
▁ste	-3033
▁realize	-3034
你能	-3035
最近	-3036
▁ap	-3037
▁circ	-3038
▁feeling	-3039
▁technologies	-3040
医院	-3041
面临	-3042
▁win	-3043
▁challenge	-3044
任务	-3045
系列	-3046
发生的	-3047
What	-3048
事件	-3049
化学	-3050
那种	-3051
▁直到	-3052
各位	-3053
dden	-3054
▁Man	-3055
▁flow	-3056
▁growing	-3057
好像	-3058
发生在	-3059
过去的	-3060
▁sudden	-3061
▁numbers	-3062
▁stra	-3063
从来	-3064
值得	-3065
参加	-3066
经过	-3067
ext	-3068
▁post	-3069
只能	-3070
DNA	-3071
▁opt	-3072
ug	-3073
称为	-3074
试验	-3075
的孩子	-3076
of	-3077
调查	-3078
软件	-3079
ging	-3080
▁born	-3081
▁civil	-3082
▁average	-3083
▁developed	-3084
▁knowledge	-3085
多么	-3086
▁例如	-3087
它们的	-3088
book	-3089
▁box	-3090
▁bene	-3091
▁slow	-3092
▁books	-3093
▁reality	-3094
描述	-3095
本书	-3096
梦想	-3097
聪明	-3098
▁我知道	-3099
ensive	-3100
▁white	-3101
▁profess	-3102
生态	-3103
全世界	-3104
▁miles	-3105
▁physical	-3106
25	-3107
不过	-3108
训练	-3109
oud	-3110
▁25	-3111
ored	-3112
▁crit	-3113
▁World	-3114
▁favor	-3115
by	-3116
lu	-3117
比如	-3118
法律	-3119
eng	-3120
▁instit	-3121
▁understanding	-3122
一条	-3123
我们有	-3124
▁Our	-3125
▁die	-3126
▁hor	-3127
▁Yeah	-3128
▁wrote	-3129
会议	-3130
奇怪	-3131
面的	-3132
oon	-3133
其他人	-3134
▁fac	-3135
▁intern	-3136
尤其	-3137
恐惧	-3138
▁在这个	-3139
▁issue	-3140
▁spread	-3141
▁forward	-3142
▁literally	-3143
国际	-3144
带着	-3145
racy	-3146
▁我希望	-3147
▁text	-3148
ustain	-3149
▁tools	-3150
▁running	-3151
▁serious	-3152
▁starting	-3153
平均	-3154
新闻	-3155
▁结果	-3156
▁都是	-3157
发现了	-3158
▁gives	-3159
▁electric	-3160
▁却	-3161
▁force	-3162
▁compet	-3163
视觉	-3164
acy	-3165
▁pur	-3166
▁dead	-3167
▁experiment	-3168
图像	-3169
我们要	-3170
生活在	-3171
anger	-3172
▁tele	-3173
▁neigh	-3174
你在	-3175
生存	-3176
革命	-3177
▁假	-3178
体验	-3179
房间	-3180
▁color	-3181
▁similar	-3182
我所	-3183
bon	-3184
▁rul	-3185
▁climate	-3186
不需要	-3187
意思是	-3188
▁seems	-3189
ai	-3190
很快	-3191
收集	-3192
生的	-3193
aged	-3194
ploy	-3195
▁mar	-3196
▁disc	-3197
ression	-3198
▁telling	-3199
以为	-3200
标准	-3201
用于	-3202
▁prin	-3203
▁rele	-3204
▁repl	-3205
▁giving	-3206
▁talked	-3207
一段	-3208
全部	-3209
国家的	-3210
▁hosp	-3211
▁images	-3212
▁English	-3213
和我	-3214
妇女	-3215
水平	-3216
这张	-3217
▁接着	-3218
▁visual	-3219
▁scientists	-3220
普通	-3221
暴力	-3222
森林	-3223
chie	-3224
▁deg	-3225
星期	-3226
▁一种	-3227
▁ast	-3228
▁guess	-3229
▁development	-3230
▁fu	-3231
▁sho	-3232
ified	-3233
▁fish	-3234
▁做	-3235
完美	-3236
了我们	-3237
▁vol	-3238
▁movement	-3239
▁tradition	-3240
效果	-3241
是有	-3242
风险	-3243
icy	-3244
omen	-3245
▁micro	-3246
一只	-3247
自身	-3248
▁hot	-3249
ggest	-3250
▁thank	-3251
▁hundreds	-3252
▁discovered	-3253
经验	-3254
告诉我们	-3255
▁medic	-3256
兴奋	-3257
回来	-3258
▁但这	-3259
▁但是我	-3260
这是一个	-3261
▁fire	-3262
▁road	-3263
▁South	-3264
▁stage	-3265
▁describ	-3266
说过	-3267
▁type	-3268
▁suggest	-3269
记忆	-3270
ped	-3271
▁还是	-3272
我们能	-3273
▁depe	-3274
▁vill	-3275
par	-3276
por	-3277
了很多	-3278
▁center	-3279
ites	-3280
▁main	-3281
▁stat	-3282
▁includ	-3283
住在	-3284
好了	-3285
▁ice	-3286
▁rock	-3287
ilities	-3288
▁proper	-3289
▁meaning	-3290
▁millions	-3291
绝对	-3292
英尺	-3293
我们就	-3294
▁worth	-3295
失败	-3296
提高	-3297
bit	-3298
▁track	-3299
▁又	-3300
不起	-3301
专家	-3302
▁60	-3303
的研究	-3304
▁est	-3305
▁audience	-3306
▁solution	-3307
▁developing	-3308
▁sn	-3309
得到了	-3310
▁map	-3311
吸引	-3312
开放	-3313
表演	-3314
运作	-3315
iet	-3316
▁cop	-3317
▁sil	-3318
▁anyone	-3319
▁normal	-3320
pecially	-3321
▁collect	-3322
▁absolutely	-3323
不错	-3324
心脏	-3325
▁arr	-3326
▁patient	-3327
▁人	-3328
▁只有	-3329
▁看看	-3330
看到了	-3331
▁aren	-3332
▁alone	-3333
▁convers	-3334
▁industry	-3335
不仅	-3336
问题的	-3337
▁flo	-3338
▁rate	-3339
▁playing	-3340
是的	-3341
消失	-3342
amed	-3343
▁touch	-3344
▁current	-3345
允许	-3346
重要的是	-3347
▁cars	-3348
▁sell	-3349
▁theory	-3350
▁concept	-3351
chan	-3352
ique	-3353
因素	-3354
打开	-3355
需求	-3356
iod	-3357
ung	-3358
每一个	-3359
imens	-3360
▁suff	-3361
▁innovation	-3362
下去	-3363
感受	-3364
都不	-3365
▁如何	-3366
iant	-3367
oose	-3368
▁avail	-3369
▁showed	-3370
危机	-3371
句话	-3372
显然	-3373
▁我们要	-3374
▁modern	-3375
后的	-3376
成本	-3377
美丽	-3378
▁knows	-3379
政策	-3380
艺术家	-3381
head	-3382
▁我可以	-3383
▁path	-3384
▁sleep	-3385
基于	-3386
糟糕	-3387
结合	-3388
▁我也	-3389
▁这就	-3390
▁sold	-3391
▁fundam	-3392
高的	-3393
▁另外	-3394
▁lif	-3395
▁produce	-3396
▁subject	-3397
中间	-3398
或许	-3399
▁Am	-3400
ucle	-3401
▁lay	-3402
urity	-3403
▁ball	-3404
erence	-3405
▁intellig	-3406
会说	-3407
▁很多	-3408
当我们	-3409
这样做	-3410
ades	-3411
pect	-3412
▁eye	-3413
▁soon	-3414
▁smart	-3415
上了	-3416
介绍	-3417
先生	-3418
空气	-3419
▁只是	-3420
▁无论	-3421
的数据	-3422
▁forest	-3423
的最	-3424
伟大的	-3425
like	-3426
▁我们有	-3427
都知道	-3428
▁shape	-3429
▁sustain	-3430
这项	-3431
▁他的	-3432
ences	-3433
以来	-3434
星球	-3435
规则	-3436
很重要	-3437
asing	-3438
▁save	-3439
▁song	-3440
▁voice	-3441
▁period	-3442
▁creating	-3443
土地	-3444
▁prop	-3445
▁benef	-3446
▁Chinese	-3447
▁recently	-3448
▁incredibly	-3449
▁它的	-3450
▁Google	-3451
▁reasons	-3452
行星	-3453
运用	-3454
ival	-3455
▁seem	-3456
▁我们必须	-3457
▁issues	-3458
▁computers	-3459
距离	-3460
里斯	-3461
asc	-3462
的信息	-3463
给我们	-3464
▁emp	-3465
▁fur	-3466
▁among	-3467
▁online	-3468
Th	-3469
心的	-3470
恐怖	-3471
unt	-3472
▁By	-3473
▁achie	-3474
▁changing	-3475
▁especially	-3476
正是	-3477
apt	-3478
▁不管	-3479
复杂的	-3480
是怎么	-3481
▁camp	-3482
▁attack	-3483
ma	-3484
艾滋	-3485
ify	-3486
▁arm	-3487
▁haven	-3488
医学	-3489
英里	-3490
的一切	-3491
▁react	-3492
▁device	-3493
▁pictures	-3494
感染	-3495
说明	-3496
▁那个	-3497
是非常	-3498
▁ult	-3499
▁asking	-3500
▁designed	-3501
ohn	-3502
▁chance	-3503
▁resources	-3504
▁situation	-3505
动作	-3506
接触	-3507
某个	-3508
消费	-3509
神奇	-3510
▁开始	-3511
▁din	-3512
▁tiny	-3513
▁transform	-3514
一件	-3515
不多	-3516
创作	-3517
ency	-3518
▁wish	-3519
▁plant	-3520
▁truth	-3521
▁street	-3522
一般	-3523
智慧	-3524
银行	-3525
enn	-3526
▁bur	-3527
▁bigger	-3528
▁becomes	-3529
男孩	-3530
▁dou	-3531
▁hon	-3532
▁poll	-3533
▁function	-3534
yn	-3535
oices	-3536
▁baby	-3537
▁prom	-3538
几年	-3539
表明	-3540
▁Ph	-3541
▁mathem	-3542
▁putting	-3543
▁experien	-3544
两种	-3545
体系	-3546
细菌	-3547
西方	-3548
责任	-3549
ips	-3550
str	-3551
abor	-3552
assion	-3553
▁drive	-3554
▁necess	-3555
▁involved	-3556
▁available	-3557
▁generation	-3558
花费	-3559
很好的	-3560
的生活	-3561
这么做	-3562
arily	-3563
Oh	-3564
osph	-3565
yond	-3566
工业	-3567
形状	-3568
▁medical	-3569
▁towards	-3570
之为	-3571
婴儿	-3572
边的	-3573
pre	-3574
▁fair	-3575
▁nucle	-3576
▁table	-3577
▁capital	-3578
在那里	-3579
有一些	-3580
给大家	-3581
一名	-3582
到达	-3583
▁With	-3584
▁girls	-3585
时的	-3586
▁flu	-3587
ister	-3588
▁rules	-3589
▁solve	-3590
去做	-3591
进步	-3592
▁bra	-3593
▁emerg	-3594
不用	-3595
▁我们也	-3596
▁这是个	-3597
▁defin	-3598
iP	-3599
动的	-3600
ube	-3601
不得不	-3602
称之为	-3603
▁imm	-3604
▁sea	-3605
▁except	-3606
▁groups	-3607
交通	-3608
▁ep	-3609
些什么	-3610
把它们	-3611
▁但是我们	-3612
iction	-3613
▁carbon	-3614
类的	-3615
▁Sp	-3616
我可以	-3617
改变了	-3618
▁clos	-3619
权利	-3620
装置	-3621
▁Re	-3622
▁她们	-3623
oring	-3624
真是	-3625
▁正如	-3626
没有人	-3627
▁Inst	-3628
▁effective	-3629
IV	-3630
▁自	-3631
压力	-3632
▁80	-3633
▁De	-3634
▁hit	-3635
▁lea	-3636
light	-3637
▁rain	-3638
▁message	-3639
办公	-3640
▁只要	-3641
未来的	-3642
▁mechan	-3643
提出	-3644
▁你能	-3645
了一些	-3646
设计的	-3647
▁Com	-3648
▁dom	-3649
▁choice	-3650
▁report	-3651
▁anybody	-3652
SA	-3653
之中	-3654
的想法	-3655
让他们	-3656
vert	-3657
▁Yes	-3658
▁sever	-3659
▁beyond	-3660
联合	-3661
告诉你们	-3662
▁character	-3663
建议	-3664
条件	-3665
状况	-3666
▁bar	-3667
▁tend	-3668
▁我们现在	-3669
umb	-3670
▁aw	-3671
可能是	-3672
used	-3673
▁sat	-3674
istan	-3675
usion	-3676
▁lived	-3677
▁danger	-3678
幸运	-3679
pid	-3680
▁er	-3681
▁log	-3682
▁drug	-3683
▁digital	-3684
你所	-3685
女士	-3686
itiz	-3687
▁neur	-3688
▁likely	-3689
▁sounds	-3690
▁account	-3691
▁general	-3692
▁相	-3693
内部	-3694
或是	-3695
ask	-3696
une	-3697
fort	-3698
▁bed	-3699
情绪	-3700
降低	-3701
在我们	-3702
大量的	-3703
工作的	-3704
lict	-3705
▁unf	-3706
高兴	-3707
▁fem	-3708
▁basic	-3709
▁writing	-3710
▁examples	-3711
▁没	-3712
是不	-3713
表面	-3714
角色	-3715
▁Oh	-3716
▁fa	-3717
还没有	-3718
这一切	-3719
▁199	-3720
▁evidence	-3721
出去	-3722
把这些	-3723
▁这是我	-3724
ished	-3725
▁bird	-3726
▁walking	-3727
我也	-3728
▁因为他们	-3729
▁quality	-3730
▁several	-3731
▁software	-3732
▁materials	-3733
二十	-3734
ously	-3735
▁revolution	-3736
agn	-3737
生命的	-3738
▁mob	-3739
▁action	-3740
▁starts	-3741
▁extraord	-3742
wh	-3743
动力	-3744
处于	-3745
学会	-3746
特殊	-3747
独立	-3748
还在	-3749
世界各	-3750
▁drugs	-3751
▁obviously	-3752
蛋白	-3753
oms	-3754
▁ec	-3755
▁人类	-3756
▁died	-3757
▁nine	-3758
▁potential	-3759
▁particularly	-3760
出生	-3761
转变	-3762
▁First	-3763
▁跟	-3764
小孩	-3765
患者	-3766
有多	-3767
见的	-3768
aur	-3769
ires	-3770
irth	-3771
▁safe	-3772
▁block	-3773
取得	-3774
那时	-3775
颜色	-3776
▁Im	-3777
▁或是	-3778
很大的	-3779
▁我们能	-3780
▁skin	-3781
▁非常感谢	-3782
▁breat	-3783
▁certainly	-3784
xy	-3785
ief	-3786
▁最终	-3787
ctors	-3788
▁prim	-3789
▁games	-3790
房子	-3791
投入	-3792
晚上	-3793
▁ce	-3794
▁那时	-3795
一直在	-3796
的照片	-3797
onse	-3798
▁clean	-3799
你要	-3800
使得	-3801
绿色	-3802
▁Any	-3803
▁我们会	-3804
▁rich	-3805
ishing	-3806
▁Maybe	-3807
▁solar	-3808
▁office	-3809
▁individuals	-3810
四个	-3811
威胁	-3812
广告	-3813
ned	-3814
▁pu	-3815
情况下	-3816
▁gas	-3817
▁onto	-3818
▁screen	-3819
lo	-3820
公民	-3821
the	-3822
▁之后	-3823
medi	-3824
▁stru	-3825
▁citiz	-3826
▁vision	-3827
▁journey	-3828
彼此	-3829
put	-3830
其中的	-3831
的国家	-3832
▁Bra	-3833
▁neg	-3834
▁okay	-3835
▁trust	-3836
▁further	-3837
▁schools	-3838
▁neighbor	-3839
冲突	-3840
表示	-3841
how	-3842
▁我就	-3843
这些人	-3844
eter	-3845
ressed	-3846
▁speed	-3847
总统	-3848
的那	-3849
ina	-3850
▁在这	-3851
所有人	-3852
▁link	-3853
▁princi	-3854
▁克	-3855
当地	-3856
期的	-3857
那是	-3858
都能	-3859
▁Of	-3860
▁Pr	-3861
▁好吧	-3862
idge	-3863
▁然后我们	-3864
▁cross	-3865
▁search	-3866
专业	-3867
大量	-3868
学的	-3869
文章	-3870
每年	-3871
iar	-3872
▁syn	-3873
▁Where	-3874
竞争	-3875
组成	-3876
▁或许	-3877
▁activ	-3878
▁effic	-3879
▁showing	-3880
▁compassion	-3881
more	-3882
rast	-3883
▁mount	-3884
▁represent	-3885
信仰	-3886
思维	-3887
相似	-3888
站在	-3889
还要	-3890
come	-3891
view	-3892
▁boy	-3893
▁biggest	-3894
家伙	-3895
痛苦	-3896
uit	-3897
ground	-3898
▁wants	-3899
▁response	-3900
回家	-3901
对吧	-3902
质量	-3903
ows	-3904
▁North	-3905
▁carry	-3906
.,	-3907
他人	-3908
刚才	-3909
ech	-3910
▁包括	-3911
的例子	-3912
▁moved	-3913
▁largest	-3914
对此	-3915
很大	-3916
行业	-3917
集中	-3918
▁pa	-3919
的能力	-3920
tend	-3921
▁adm	-3922
▁aware	-3923
▁waste	-3924
监狱	-3925
▁来自	-3926
....	-3927
▁vac	-3928
▁complic	-3929
▁particip	-3930
▁democracy	-3931
不想	-3932
同事	-3933
eth	-3934
下一个	-3935
▁我们就	-3936
▁John	-3937
▁role	-3938
▁encou	-3939
▁plants	-3940
互相	-3941
是最	-3942
讲述	-3943
500	-3944
oke	-3945
ners	-3946
▁然后我	-3947
antly	-3948
▁exciting	-3949
▁extremely	-3950
uly	-3951
▁想象	-3952
▁son	-3953
▁Brit	-3954
▁cris	-3955
isions	-3956
▁trial	-3957
▁favorite	-3958
▁projects	-3959
别的	-3960
杂志	-3961
知的	-3962
资金	-3963
造成	-3964
▁后来	-3965
美国人	-3966
可以看到	-3967
▁movie	-3968
▁nobody	-3969
快速	-3970
操作	-3971
icle	-3972
▁bacter	-3973
▁introdu	-3974
▁strateg	-3975
▁everywhere	-3976
▁scientific	-3977
从未	-3978
基金	-3979
武器	-3980
积极	-3981
▁Ge	-3982
我觉得	-3983
的影响	-3984
apan	-3985
itary	-3986
▁bunch	-3987
▁stick	-3988
▁allowed	-3989
他说	-3990
停止	-3991
害怕	-3992
所在	-3993
的确	-3994
阿拉	-3995
ana	-3996
lex	-3997
▁任何	-3998
pped	-3999
ought	-4000
▁West	-4001
▁rece	-4002
▁ready	-4003
▁conscious	-4004
关心	-4005
平等	-4006
疯狂	-4007
的主	-4008
地球上	-4009
设计师	-4010
▁gal	-4011
▁code	-4012
▁birth	-4013
▁national	-4014
博物	-4015
当中	-4016
花了	-4017
▁这一	-4018
差不多	-4019
的声音	-4020
▁div	-4021
▁bank	-4022
iation	-4023
▁totally	-4024
▁supposed	-4025
你就	-4026
测量	-4027
蚂蚁	-4028
ids	-4029
▁fix	-4030
▁如果我	-4031
ruction	-4032
▁camera	-4033
▁creative	-4034
▁thousand	-4035
▁需要	-4036
分之一	-4037
有趣的	-4038
igher	-4039
▁positive	-4040
▁progress	-4041
对话	-4042
屏幕	-4043
属于	-4044
▁而这	-4045
下来的	-4046
什么是	-4047
博物馆	-4048
▁Most	-4049
▁context	-4050
名的	-4051
塑料	-4052
度的	-4053
神经元	-4054
这件事	-4055
rage	-4056
▁Japan	-4057
▁cause	-4058
▁meant	-4059
▁named	-4060
▁African	-4061
不在	-4062
本质	-4063
爆炸	-4064
爱的	-4065
他们在	-4066
生活中	-4067
程度上	-4068
▁Cal	-4069
▁tar	-4070
▁接下来	-4071
▁Even	-4072
▁higher	-4073
▁rights	-4074
▁security	-4075
▁两	-4076
价格	-4077
保证	-4078
可怕	-4079
破坏	-4080
nal	-4081
▁16	-4082
ture	-4083
▁spir	-4084
▁现在我们	-4085
▁check	-4086
▁crazy	-4087
▁threat	-4088
引起	-4089
很棒	-4090
▁我很	-4091
▁第一	-4092
itter	-4093
▁door	-4094
▁我们已经	-4095
▁After	-4096
▁assum	-4097
▁separ	-4098
▁hospital	-4099
发表	-4100
垃圾	-4101
设施	-4102
负责	-4103
▁Pro	-4104
▁fill	-4105
▁jobs	-4106
osphere	-4107
pective	-4108
太空	-4109
理由	-4110
统计	-4111
也没有	-4112
▁deb	-4113
itten	-4114
▁store	-4115
▁depend	-4116
▁memory	-4117
▁return	-4118
▁results	-4119
▁teachers	-4120
下降	-4121
只要	-4122
失去	-4123
for	-4124
let	-4125
▁每个	-4126
注意到	-4127
cise	-4128
▁Who	-4129
▁goal	-4130
▁peace	-4131
▁print	-4132
▁temper	-4133
▁objects	-4134
▁activity	-4135
▁chemical	-4136
▁总	-4137
放到	-4138
看来	-4139
适应	-4140
阅读	-4141
akes	-4142
▁dro	-4143
▁rid	-4144
▁apart	-4145
▁sorts	-4146
▁concer	-4147
▁models	-4148
ny	-4149
和平	-4150
毫无	-4151
有可能	-4152
▁meth	-4153
▁virt	-4154
▁communities	-4155
找到了	-4156
▁HIV	-4157
▁War	-4158
▁led	-4159
▁earl	-4160
ission	-4161
▁graph	-4162
▁trees	-4163
▁nuclear	-4164
▁products	-4165
▁watching	-4166
▁connected	-4167
▁essentially	-4168
模拟	-4169
▁大约	-4170
iger	-4171
▁Don	-4172
▁fant	-4173
▁appear	-4174
▁immedi	-4175
▁notice	-4176
▁continue	-4177
外的	-4178
背景	-4179
anc	-4180
得到的	-4181
▁我们将	-4182
▁eventually	-4183
邀请	-4184
▁11	-4185
的事物	-4186
的结果	-4187
而不是	-4188
▁dam	-4189
oming	-4190
▁grew	-4191
▁magn	-4192
▁mine	-4193
▁sequ	-4194
▁doctor	-4195
▁transl	-4196
情感	-4197
职业	-4198
诊断	-4199
过了	-4200
避免	-4201
▁尤其	-4202
怎么样	-4203
给他们	-4204
iers	-4205
mend	-4206
▁fra	-4207
▁faster	-4208
▁discover	-4209
mb	-4210
▁上	-4211
互动	-4212
变成了	-4213
带来的	-4214
nces	-4215
ster	-4216
conds	-4217
▁webs	-4218
▁above	-4219
▁extraordinary	-4220
la	-4221
漂亮	-4222
生长	-4223
的成	-4224
erve	-4225
这样一个	-4226
odies	-4227
▁lose	-4228
▁influ	-4229
▁source	-4230
▁improve	-4231
▁consider	-4232
zz	-4233
千万	-4234
ama	-4235
▁有人	-4236
年轻人	-4237
是不是	-4238
▁bom	-4239
cient	-4240
ulate	-4241
▁push	-4242
▁cases	-4243
▁shown	-4244
▁village	-4245
▁conflict	-4246
利益	-4247
实在	-4248
文字	-4249
英语	-4250
办公室	-4251
edom	-4252
urban	-4253
▁clin	-4254
▁marr	-4255
▁worse	-4256
▁detail	-4257
▁launch	-4258
▁passion	-4259
▁X	-4260
太多	-4261
恢复	-4262
接近	-4263
是由	-4264
理念	-4265
用了	-4266
艾滋病	-4267
▁这样的	-4268
▁remark	-4269
▁including	-4270
假设	-4271
教授	-4272
逐渐	-4273
▁17	-4274
fact	-4275
▁mis	-4276
做的事情	-4277
verty	-4278
▁fing	-4279
▁wait	-4280
▁adult	-4281
▁finan	-4282
▁signific	-4283
一场	-4284
儿子	-4285
扫描	-4286
物体	-4287
财富	-4288
▁TV	-4289
▁从而	-4290
都可以	-4291
都没有	-4292
inct	-4293
▁我们还	-4294
atory	-4295
▁Christ	-4296
▁minute	-4297
▁teacher	-4298
▁collabor	-4299
之处	-4300
种族	-4301
ran	-4302
▁21	-4303
▁特别	-4304
亿美元	-4305
▁ended	-4306
▁moral	-4307
ossible	-4308
▁disapp	-4309
▁robots	-4310
ze	-4311
燃料	-4312
鼓励	-4313
▁90	-4314
ffic	-4315
▁ann	-4316
▁late	-4317
▁colleag	-4318
▁suddenly	-4319
▁多	-4320
巨大	-4321
平衡	-4322
年里	-4323
日本	-4324
时刻	-4325
▁14	-4326
▁Car	-4327
▁blind	-4328
▁larger	-4329
▁square	-4330
▁wealth	-4331
izations	-4332
▁student	-4333
阻止	-4334
ays	-4335
joy	-4336
men	-4337
▁那里	-4338
你们的	-4339
我们会	-4340
有多少	-4341
▁bal	-4342
我们现在	-4343
others	-4344
▁somewhere	-4345
go	-4346
▁Q	-4347
仔细	-4348
常常	-4349
并非	-4350
火星	-4351
警察	-4352
▁phil	-4353
estern	-4354
▁tells	-4355
▁indeed	-4356
▁straight	-4357
▁complicated	-4358
培养	-4359
想想	-4360
星系	-4361
记住	-4362
pan	-4363
rest	-4364
▁Tod	-4365
▁alg	-4366
▁我们知道	-4367
▁galax	-4368
▁minds	-4369
▁excited	-4370
▁successful	-4371
文明	-4372
的新	-4373
说话	-4374
面前	-4375
amm	-4376
ued	-4377
▁Ab	-4378
▁如今	-4379
ring	-4380
▁Look	-4381
▁allows	-4382
▁killed	-4383
▁taught	-4384
▁discuss	-4385
▁violence	-4386
▁fundamental	-4387
▁conversation	-4388
▁加	-4389
证据	-4390
那儿	-4391
面包	-4392
▁Le	-4393
对我们	-4394
我来说	-4395
我知道	-4396
▁farm	-4397
acebook	-4398
▁mathemat	-4399
ortunately	-4400
▁buildings	-4401
We	-4402
原始	-4403
▁他们会	-4404
▁Those	-4405
▁accept	-4406
惊讶	-4407
ims	-4408
▁oxy	-4409
ounds	-4410
▁cart	-4411
▁kept	-4412
▁sand	-4413
▁tree	-4414
▁labor	-4415
▁points	-4416
▁standing	-4417
年龄	-4418
时期	-4419
结论	-4420
限制	-4421
产生的	-4422
听起来	-4423
▁这也是	-4424
▁card	-4425
▁brains	-4426
▁choose	-4427
▁distrib	-4428
氧化	-4429
男性	-4430
部门	-4431
▁70	-4432
isms	-4433
▁older	-4434
▁crisis	-4435
▁finding	-4436
▁poverty	-4437
▁publish	-4438
▁machines	-4439
▁electricity	-4440
ky	-4441
了这	-4442
将要	-4443
所做的	-4444
生活的	-4445
的力量	-4446
cape	-4447
▁sky	-4448
▁actual	-4449
▁affect	-4450
▁region	-4451
▁decision	-4452
▁traditional	-4453
▁organization	-4454
▁此	-4455
呼吸	-4456
我能	-4457
报道	-4458
是从	-4459
比亚	-4460
▁Ag	-4461
soci	-4462
▁cat	-4463
▁author	-4464
▁policy	-4465
▁contrib	-4466
▁military	-4467
16	-4468
下一	-4469
岁的	-4470
拯救	-4471
遇到	-4472
oint	-4473
▁我相信	-4474
▁luck	-4475
▁site	-4476
▁earth	-4477
▁service	-4478
▁somehow	-4479
▁position	-4480
▁recognize	-4481
▁perspective	-4482
依赖	-4483
家里	-4484
课程	-4485
都很	-4486
dom	-4487
ipt	-4488
▁kil	-4489
▁比如说	-4490
▁fram	-4491
▁heav	-4492
▁pack	-4493
......	-4494
▁please	-4495
▁prison	-4496
▁families	-4497
▁specific	-4498
▁impossible	-4499
哪些	-4500
差异	-4501
所谓	-4502
承认	-4503
来了	-4504
rad	-4505
ror	-4506
工程师	-4507
▁wife	-4508
▁corre	-4509
ologists	-4510
▁happiness	-4511
即使	-4512
谈谈	-4513
成功的	-4514
▁这不是	-4515
▁trou	-4516
▁enjoy	-4517
▁lands	-4518
▁lower	-4519
▁engage	-4520
▁studies	-4521
▁usually	-4522
▁patterns	-4523
▁training	-4524
▁treatment	-4525
再次	-4526
思议	-4527
运行	-4528
马上	-4529
也就是	-4530
▁phen	-4531
▁upon	-4532
▁afford	-4533
▁medicine	-4534
才是	-4535
拉克	-4536
温度	-4537
食品	-4538
▁是的	-4539
把这个	-4540
ining	-4541
▁fine	-4542
▁pieces	-4543
▁solutions	-4544
.5	-4545
No	-4546
式的	-4547
打算	-4548
漫画	-4549
熟悉	-4550
bol	-4551
▁正在	-4552
看上去	-4553
我们已经	-4554
▁Like	-4555
▁fasc	-4556
▁yeah	-4557
inated	-4558
▁weight	-4559
不了	-4560
习惯	-4561
女儿	-4562
污染	-4563
特的	-4564
太阳能	-4565
▁Mar	-4566
▁series	-4567
▁content	-4568
14	-4569
卫星	-4570
建设	-4571
猩猩	-4572
而是	-4573
▁这张	-4574
ping	-4575
▁dog	-4576
useum	-4577
▁genes	-4578
▁surger	-4579
▁mention	-4580
▁smaller	-4581
▁critical	-4582
像是	-4583
放弃	-4584
▁13	-4585
可以在	-4586
▁因为它	-4587
▁cold	-4588
ration	-4589
▁reading	-4590
▁几	-4591
包含	-4592
改善	-4593
社交	-4594
ops	-4595
的环境	-4596
epend	-4597
▁mist	-4598
though	-4599
▁Today	-4600
▁board	-4601
▁cloud	-4602
▁truly	-4603
▁你可以看到	-4604
▁college	-4605
▁conditions	-4606
人民	-4607
富汗	-4608
报告	-4609
摄影	-4610
群体	-4611
▁同样	-4612
阿富汗	-4613
▁Somet	-4614
▁slight	-4615
▁terror	-4616
▁anymore	-4617
▁increase	-4618
一项	-4619
免费	-4620
学院	-4621
年后	-4622
必要	-4623
消耗	-4624
节目	-4625
met	-4626
rab	-4627
可能性	-4628
▁web	-4629
▁income	-4630
▁massive	-4631
▁Americans	-4632
左右	-4633
犯罪	-4634
▁大概	-4635
nter	-4636
▁Act	-4637
▁beings	-4638
▁biology	-4639
▁expensive	-4640
各个	-4641
同情	-4642
来源	-4643
重复	-4644
▁pen	-4645
▁sou	-4646
▁daught	-4647
▁employ	-4648
同意	-4649
多样	-4650
智能	-4651
imb	-4652
▁好的	-4653
▁目前	-4654
的过程	-4655
iven	-4656
sect	-4657
▁swe	-4658
没有任何	-4659
▁East	-4660
▁page	-4661
▁star	-4662
▁我不知道	-4663
▁trick	-4664
▁version	-4665
▁citizens	-4666
享受	-4667
好吧	-4668
演奏	-4669
▁我还	-4670
做的是	-4671
在美国	-4672
▁doc	-4673
▁eth	-4674
▁lad	-4675
▁每个人	-4676
▁port	-4677
▁enorm	-4678
▁molec	-4679
▁prote	-4680
▁seconds	-4681
▁univers	-4682
▁phenomen	-4683
▁decisions	-4684
发出	-4685
咖啡	-4686
器官	-4687
性恋	-4688
援助	-4689
正确的	-4690
▁Afgh	-4691
▁cook	-4692
▁purp	-4693
▁term	-4694
▁town	-4695
▁forms	-4696
▁glass	-4697
▁throw	-4698
itation	-4699
不管	-4700
确保	-4701
网上	-4702
这儿	-4703
▁Are	-4704
▁alive	-4705
比赛	-4706
见过	-4707
认知	-4708
发展中	-4709
▁另一个	-4710
这些东西	-4711
▁wild	-4712
▁lines	-4713
▁occur	-4714
▁spect	-4715
▁stars	-4716
▁skills	-4717
▁anywhere	-4718
DP	-4719
公园	-4720
创建	-4721
复制	-4722
肿瘤	-4723
障碍	-4724
fer	-4725
▁Sw	-4726
人们的	-4727
▁hop	-4728
▁于是我	-4729
iding	-4730
▁roll	-4731
▁price	-4732
ustrial	-4733
▁calcul	-4734
▁mental	-4735
▁strange	-4736
▁谁	-4737
体内	-4738
旅行	-4739
身份	-4740
rom	-4741
▁而我	-4742
back	-4743
▁我开始	-4744
▁zero	-4745
▁urban	-4746
▁written	-4747
好处	-4748
电池	-4749
终于	-4750
而已	-4751
谷歌	-4752
资本	-4753
来自于	-4754
▁legs	-4755
▁private	-4756
▁increasing	-4757
▁三	-4758
工厂	-4759
▁Ad	-4760
的技术	-4761
作为一个	-4762
是这样的	-4763
▁costs	-4764
▁police	-4765
▁achieve	-4766
巴西	-4767
循环	-4768
排放	-4769
老鼠	-4770
avid	-4771
eral	-4772
oles	-4773
▁ign	-4774
▁tur	-4775
agine	-4776
▁shot	-4777
▁Another	-4778
元素	-4779
坚持	-4780
▁——	-4781
▁完全	-4782
▁整个	-4783
我们对	-4784
aries	-4785
▁tiss	-4786
▁worry	-4787
▁himself	-4788
▁respond	-4789
▁willing	-4790
ha	-4791
▁向	-4792
做得	-4793
之所以	-4794
什么呢	-4795
的社会	-4796
▁whe	-4797
▁fuel	-4798
▁Afghan	-4799
▁remind	-4800
▁transport	-4801
年来	-4802
英雄	-4803
路上	-4804
oty	-4805
▁Go	-4806
▁世界	-4807
▁许多	-4808
time	-4809
▁Ste	-4810
成为一个	-4811
itude	-4812
▁cover	-4813
▁bodies	-4814
▁determ	-4815
▁famous	-4816
▁provide	-4817
▁waiting	-4818
▁direction	-4819
▁environmental	-4820
13	-4821
博士	-4822
置信	-4823
长大	-4824
iti	-4825
▁就在	-4826
存在的	-4827
那样的	-4828
lebr	-4829
▁unique	-4830
成长	-4831
皮肤	-4832
究竟	-4833
观念	-4834
针对	-4835
rap	-4836
edia	-4837
▁veh	-4838
▁他们在	-4839
aging	-4840
erman	-4841
▁address	-4842
▁earlier	-4843
▁freedom	-4844
你是	-4845
变革	-4846
搜索	-4847
会发生	-4848
进一步	-4849
cies	-4850
rams	-4851
orrow	-4852
▁Which	-4853
▁autom	-4854
▁comfort	-4855
▁greater	-4856
▁painting	-4857
▁小	-4858
会在	-4859
安德	-4860
家人	-4861
看法	-4862
让它	-4863
贡献	-4864
贫困	-4865
部的	-4866
采取	-4867
驾驶	-4868
ulf	-4869
ried	-4870
ently	-4871
istics	-4872
▁manage	-4873
atically	-4874
▁explore	-4875
▁healthy	-4876
上升	-4877
信任	-4878
得以	-4879
沟通	-4880
rum	-4881
▁Cl	-4882
amic	-4883
▁第一个	-4884
帮助我们	-4885
▁weren	-4886
▁doctors	-4887
▁becoming	-4888
之外	-4889
获取	-4890
iced	-4891
iest	-4892
sequ	-4893
▁我们发现	-4894
▁societ	-4895
▁clearly	-4896
▁physics	-4897
▁familiar	-4898
▁fantastic	-4899
▁therefore	-4900
▁international	-4901
农业	-4902
检测	-4903
约翰	-4904
pro	-4905
阿拉伯	-4906
▁sal	-4907
▁在我们	-4908
▁City	-4909
▁magic	-4910
▁values	-4911
▁neurons	-4912
%。	-4913
ID	-4914
卫生	-4915
密码	-4916
层面	-4917
理想	-4918
笑声	-4919
▁24	-4920
▁thr	-4921
不可思议	-4922
vision	-4923
▁meeting	-4924
▁politics	-4925
▁architecture	-4926
bb	-4927
我很	-4928
自行	-4929
▁研究	-4930
喜欢的	-4931
成为了	-4932
接下来	-4933
真实的	-4934
▁ran	-4935
不仅仅是	-4936
▁secret	-4937
▁useful	-4938
▁dangerous	-4939
昆虫	-4940
有所	-4941
深入	-4942
用户	-4943
看待	-4944
第三	-4945
至于	-4946
进去	-4947
使用的	-4948
ches	-4949
▁dyn	-4950
我们必须	-4951
acity	-4952
ained	-4953
▁rise	-4954
▁forth	-4955
▁detect	-4956
▁saving	-4957
▁institutions	-4958
博客	-4959
恐龙	-4960
权力	-4961
iot	-4962
udd	-4963
▁Bl	-4964
▁假如	-4965
ball	-4966
▁是一个	-4967
iling	-4968
ufact	-4969
▁crow	-4970
ashing	-4971
▁floor	-4972
▁effort	-4973
▁walked	-4974
▁genetic	-4975
▁workers	-4976
▁greatest	-4977
▁throughout	-4978
人生	-4979
原则	-4980
对的	-4981
找出	-4982
满足	-4983
▁进行	-4984
了这些	-4985
另一种	-4986
itor	-4987
▁Cent	-4988
▁这意味着	-4989
▁spirit	-4990
▁website	-4991
▁bacteria	-4992
▁financial	-4993
▁intelligence	-4994
▁neighborhood	-4995
▁马	-4996
人在	-4997
位于	-4998
克斯	-4999
制度	-5000
区别	-5001
mic	-5002
蛋白质	-5003
▁Per	-5004
▁Sch	-5005
▁jud	-5006
难以置信	-5007
thern	-5008
▁laws	-5009
▁谢谢大家	-5010
▁final	-5011
inating	-5012
▁celebr	-5013
▁levels	-5014
▁driving	-5015
▁respect	-5016
▁listening	-5017
17	-5018
上万	-5019
也在	-5020
原子	-5021
无论	-5022
灭绝	-5023
贫穷	-5024
ils	-5025
zil	-5026
有意思	-5027
▁Isl	-5028
▁strugg	-5029
一块	-5030
原理	-5031
攻击	-5032
检查	-5033
eny	-5034
key	-5035
看到的是	-5036
eless	-5037
▁active	-5038
▁practice	-5039
▁teaching	-5040
▁immediately	-5041
员工	-5042
的高	-5043
罗斯	-5044
▁但在	-5045
▁通常	-5046
一个小	-5047
iles	-5048
▁也就是说	-5049
atives	-5050
▁Brazil	-5051
▁following	-5052
今年	-5053
居住	-5054
打印	-5055
早期	-5056
资料	-5057
二氧化	-5058
相同的	-5059
▁aid	-5060
▁我现在	-5061
▁park	-5062
▁weap	-5063
▁diagn	-5064
▁optim	-5065
▁types	-5066
▁mobile	-5067
▁multip	-5068
IT	-5069
妙的	-5070
往往	-5071
得多	-5072
早上	-5073
核心	-5074
比例	-5075
组合	-5076
说法	-5077
除了	-5078
说的是	-5079
▁fit	-5080
▁而我们	-5081
ystem	-5082
▁hous	-5083
ologist	-5084
▁career	-5085
▁method	-5086
▁plastic	-5087
▁humanity	-5088
▁religion	-5089
伤害	-5090
美好	-5091
见到	-5092
oid	-5093
▁我对	-5094
▁500	-5095
▁sus	-5096
ables	-5097
▁demon	-5098
▁Imagine	-5099
▁嗯	-5100
▁随	-5101
由于	-5102
美金	-5103
购买	-5104
这类	-5105
附近	-5106
一部分	-5107
▁atm	-5108
▁hur	-5109
▁uses	-5110
▁drink	-5111
▁loved	-5112
imately	-5113
▁governments	-5114
yr	-5115
的地	-5116
自动	-5117
辩论	-5118
ray	-5119
ugh	-5120
个小时	-5121
大脑的	-5122
存在于	-5123
的感觉	-5124
▁pig	-5125
▁prep	-5126
▁vari	-5127
▁apply	-5128
▁range	-5129
▁virus	-5130
ructure	-5131
▁services	-5132
▁production	-5133
▁全	-5134
也能	-5135
公开	-5136
成员	-5137
▁一旦	-5138
了我的	-5139
出现在	-5140
可持续	-5141
足够的	-5142
airs	-5143
uted	-5144
▁pan	-5145
另外一个	-5146
anced	-5147
osing	-5148
▁jump	-5149
▁integ	-5150
▁various	-5151
▁manufact	-5152
十亿	-5153
反对	-5154
记者	-5155
释放	-5156
的一些	-5157
的设计	-5158
bert	-5159
▁mal	-5160
这个世界	-5161
▁hero	-5162
icians	-5163
▁broad	-5164
▁catch	-5165
▁shark	-5166
▁beauty	-5167
af	-5168
墨西	-5169
灾难	-5170
翻译	-5171
aul	-5172
▁你就	-5173
▁希望	-5174
墨西哥	-5175
范围内	-5176
所有这些	-5177
board	-5178
发生了什么	-5179
▁gradu	-5180
▁slide	-5181
▁decide	-5182
▁nation	-5183
▁Western	-5184
▁surgery	-5185
▁invented	-5186
fl	-5187
▁高	-5188
准确	-5189
名为	-5190
斯特	-5191
机械	-5192
选举	-5193
▁et	-5194
▁几乎	-5195
▁可是	-5196
▁由于	-5197
怎么做	-5198
这个词	-5199
cope	-5200
▁Two	-5201
▁sam	-5202
attle	-5203
▁Mars	-5204
▁base	-5205
▁match	-5206
▁associ	-5207
▁flying	-5208
▁remarkable	-5209
▁temperature	-5210
24	-5211
一群	-5212
学到	-5213
展现	-5214
德国	-5215
态度	-5216
流行	-5217
血管	-5218
aly	-5219
hib	-5220
off	-5221
▁Ex	-5222
▁也是	-5223
▁我将	-5224
aign	-5225
rees	-5226
▁cust	-5227
▁Austr	-5228
▁我的意思是	-5229
▁Second	-5230
na	-5231
个体	-5232
对待	-5233
成千	-5234
提到	-5235
摄像	-5236
普遍	-5237
相反	-5238
细节	-5239
身边	-5240
iate	-5241
wise	-5242
二氧化碳	-5243
▁desp	-5244
▁hair	-5245
▁infrast	-5246
▁diseases	-5247
▁interview	-5248
▁University	-5249
▁engineering	-5250
PS	-5251
ox	-5252
一家	-5253
伦敦	-5254
在座	-5255
妻子	-5256
怀疑	-5257
掌握	-5258
日常	-5259
法国	-5260
特征	-5261
疫苗	-5262
秘密	-5263
给予	-5264
邮件	-5265
金融	-5266
▁oh	-5267
▁有时	-5268
公司的	-5269
这是个	-5270
ceed	-5271
▁Har	-5272
iring	-5273
▁rand	-5274
▁smell	-5275
▁speech	-5276
▁decades	-5277
▁television	-5278
▁新	-5279
完整	-5280
迅速	-5281
适合	-5282
edd	-5283
ises	-5284
resh	-5285
▁nut	-5286
prene	-5287
▁simpl	-5288
reprene	-5289
▁decade	-5290
▁forget	-5291
▁choices	-5292
▁express	-5293
▁instance	-5294
的水	-5295
▁不要	-5296
变得更	-5297
很容易	-5298
来看看	-5299
iber	-5300
▁sad	-5301
▁基本上	-5302
▁invent	-5303
▁demonstr	-5304
▁challenges	-5305
▁understood	-5306
分布	-5307
很长	-5308
机制	-5309
爸爸	-5310
途径	-5311
出现了	-5312
ancy	-5313
▁cry	-5314
▁是因为	-5315
▁task	-5316
▁这是我们	-5317
▁artist	-5318
▁connection	-5319
现场	-5320
走进	-5321
超级	-5322
这次	-5323
▁中国	-5324
▁她说	-5325
▁dad	-5326
iforn	-5327
▁vict	-5328
▁concl	-5329
▁email	-5330
▁popular	-5331
▁electron	-5332
▁standard	-5333
交易	-5334
会被	-5335
依然	-5336
慢慢	-5337
技能	-5338
话题	-5339
ica	-5340
▁我从	-5341
和其他	-5342
真的是	-5343
▁所有的	-5344
▁Many	-5345
▁ahead	-5346
▁offic	-5347
▁random	-5348
▁stress	-5349
▁although	-5350
▁enormous	-5351
▁societies	-5352
不够	-5353
创意	-5354
按照	-5355
看不	-5356
追求	-5357
▁iP	-5358
▁你要	-5359
▁另一	-5360
到一个	-5361
方面的	-5362
需要的	-5363
▁有一个	-5364
▁Chris	-5365
▁anyway	-5366
▁Californ	-5367
▁relative	-5368
▁slightly	-5369
▁atmosphere	-5370
后面	-5371
浪费	-5372
输入	-5373
▁什么	-5374
各种各	-5375
基因组	-5376
orry	-5377
▁或者是	-5378
▁drop	-5379
▁German	-5380
▁streets	-5381
▁surround	-5382
ok	-5383
伊斯	-5384
幻灯	-5385
广泛	-5386
彻底	-5387
我还	-5388
把这	-5389
趋势	-5390
arm	-5391
▁至少	-5392
生物学	-5393
的发展	-5394
olve	-5395
▁David	-5396
▁dance	-5397
▁prevent	-5398
▁pressure	-5399
图书	-5400
我对	-5401
我将	-5402
能在	-5403
衣服	-5404
▁好了	-5405
▁除了	-5406
历史上	-5407
联合国	-5408
▁terrible	-5409
▁biological	-5410
▁organizations	-5411
不仅仅	-5412
几个月	-5413
我想要	-5414
的人口	-5415
认识到	-5416
▁scr	-5417
▁tax	-5418
▁mamm	-5419
▁motiv	-5420
▁summer	-5421
▁supply	-5422
▁consequ	-5423
▁colleagues	-5424
▁换	-5425
兄弟	-5426
来做	-5427
unk	-5428
同性恋	-5429
▁198	-5430
▁mut	-5431
▁有时候	-5432
ement	-5433
itted	-5434
ondon	-5435
orith	-5436
▁Char	-5437
▁dram	-5438
▁gent	-5439
▁destro	-5440
▁states	-5441
▁California	-5442
▁experiments	-5443
内心	-5444
利的	-5445
发挥	-5446
平台	-5447
成果	-5448
播放	-5449
最好	-5450
错了	-5451
oun	-5452
yle	-5453
▁使用	-5454
▁每天	-5455
使我们	-5456
出一个	-5457
wood	-5458
▁他们说	-5459
世界各地	-5460
岁的时候	-5461
▁displ	-5462
▁altern	-5463
▁philos	-5464
▁journal	-5465
▁possibly	-5466
ec	-5467
yl	-5468
中有	-5469
他在	-5470
判断	-5471
uct	-5472
▁ir	-5473
▁他是	-5474
▁我有	-5475
我们是	-5476
现在的	-5477
cles	-5478
▁我们都	-5479
这个项目	-5480
antic	-5481
▁sick	-5482
cience	-5483
▁radio	-5484
▁babies	-5485
▁insect	-5486
▁oxygen	-5487
▁central	-5488
▁algorith	-5489
公众	-5490
团体	-5491
我有	-5492
毕业	-5493
激励	-5494
红色	-5495
How	-5496
▁Pl	-5497
▁创造	-5498
▁它会	-5499
▁我和	-5500
他们会	-5501
强大的	-5502
anda	-5503
▁300	-5504
非常重要	-5505
arian	-5506
ellow	-5507
▁loss	-5508
▁rule	-5509
▁wood	-5510
ricult	-5511
▁oppos	-5512
▁raise	-5513
▁total	-5514
▁whose	-5515
▁shared	-5516
▁profound	-5517
一半	-5518
期间	-5519
沙漠	-5520
点是	-5521
热情	-5522
走向	-5523
道路	-5524
部落	-5525
now	-5526
▁Dr	-5527
▁但它	-5528
一些人	-5529
伊拉克	-5530
想知道	-5531
ened	-5532
▁Ira	-5533
▁Cong	-5534
▁Indian	-5535
▁London	-5536
▁programs	-5537
▁speaking	-5538
▁entreprene	-5539
▁Afghanistan	-5540
下了	-5541
启发	-5542
强烈	-5543
给了	-5544
蜜蜂	-5545
这条	-5546
ios	-5547
ira	-5548
▁你看	-5549
▁mix	-5550
从来没有	-5551
气候变化	-5552
rench	-5553
▁doub	-5554
▁Think	-5555
▁bought	-5556
▁commer	-5557
▁female	-5558
▁helped	-5559
▁survive	-5560
▁trouble	-5561
▁National	-5562
▁directly	-5563
▁condition	-5564
▁infrastructure	-5565
▁举	-5566
一旦	-5567
便宜	-5568
技巧	-5569
提醒	-5570
案例	-5571
穿过	-5572
199	-5573
ibr	-5574
win	-5575
伊斯兰	-5576
解决方案	-5577
aling	-5578
▁blog	-5579
anging	-5580
▁trade	-5581
▁forces	-5582
▁honest	-5583
▁independ	-5584
▁complexity	-5585
丰富	-5586
到处	-5587
在你	-5588
期望	-5589
混合	-5590
玻璃	-5591
闭症	-5592
amb	-5593
▁看到	-5594
我开始	-5595
adem	-5596
orge	-5597
▁Mus	-5598
▁From	-5599
▁Facebook	-5600
▁年	-5601
很少	-5602
慈善	-5603
期待	-5604
蓝色	-5605
面积	-5606
▁下面	-5607
主义者	-5608
孩子的	-5609
怎样的	-5610
感觉到	-5611
相当于	-5612
▁Your	-5613
▁evolved	-5614
▁阿	-5615
传递	-5616
刺激	-5617
执行	-5618
改革	-5619
画面	-5620
等待	-5621
苹果	-5622
遗传	-5623
问我	-5624
是这样	-5625
hone	-5626
成千上万	-5627
我们应该	-5628
▁quant	-5629
▁surve	-5630
▁dimens	-5631
▁highly	-5632
▁tremend	-5633
▁controll	-5634
▁conference	-5635
军队	-5636
士兵	-5637
报纸	-5638
接着	-5639
无线	-5640
欢迎	-5641
海岸	-5642
pes	-5643
▁ut	-5644
▁不仅	-5645
▁不同	-5646
▁他在	-5647
有些人	-5648
美国的	-5649
load	-5650
▁Arab	-5651
▁boys	-5652
▁belief	-5653
▁causes	-5654
▁closer	-5655
▁mostly	-5656
▁campaign	-5657
▁published	-5658
▁performance	-5659
探测	-5660
涉及	-5661
缺乏	-5662
走了	-5663
走到	-5664
都要	-5665
采用	-5666
ley	-5667
系统的	-5668
错误的	-5669
raid	-5670
▁etc	-5671
▁gun	-5672
▁大多数	-5673
对我来说	-5674
▁Iraq	-5675
▁analy	-5676
▁funny	-5677
▁worst	-5678
▁gentle	-5679
▁capacity	-5680
不太	-5681
为止	-5682
写的	-5683
电力	-5684
▁Te	-5685
▁就会	-5686
▁社会	-5687
第二个	-5688
2000	-5689
ores	-5690
rupt	-5691
▁这是一	-5692
phone	-5693
▁heat	-5694
▁afraid	-5695
▁easily	-5696
▁creativity	-5697
It	-5698
收到	-5699
珊瑚	-5700
透明	-5701
麻烦	-5702
cks	-5703
把他们	-5704
▁hyd	-5705
▁并不是	-5706
▁我们对	-5707
oting	-5708
ashion	-5709
▁airpl	-5710
▁compon	-5711
▁switch	-5712
▁symbol	-5713
ervation	-5714
▁devices	-5715
▁purpose	-5716
不好	-5717
优秀	-5718
则是	-5719
相机	-5720
他们是	-5721
这么多	-5722
ening	-5723
order	-5724
▁harm	-5725
▁male	-5726
▁Again	-5727
▁below	-5728
▁effects	-5729
▁focused	-5730
▁cultural	-5731
▁networks	-5732
▁反	-5733
寿命	-5734
者们	-5735
间的	-5736
300	-5737
件事情	-5738
做一个	-5739
exic	-5740
izes	-5741
▁他们是	-5742
▁在这里	-5743
cules	-5744
▁hole	-5745
▁tens	-5746
▁corner	-5747
▁custom	-5748
▁histor	-5749
▁Austral	-5750
▁Instead	-5751
▁produced	-5752
▁scientist	-5753
▁communicate	-5754
从中	-5755
做过	-5756
将来	-5757
聚集	-5758
顺便	-5759
equ	-5760
做的事	-5761
▁His	-5762
▁我们所	-5763
atell	-5764
▁reco	-5765
▁collective	-5766
▁significant	-5767
fr	-5768
▁天	-5769
做法	-5770
大众	-5771
如今	-5772
手段	-5773
没人	-5774
cell	-5775
▁ang	-5776
▁inj	-5777
arter	-5778
▁beat	-5779
▁coff	-5780
▁paid	-5781
▁agree	-5782
▁rough	-5783
▁applic	-5784
▁expand	-5785
▁resist	-5786
▁这就是为什么	-5787
▁contact	-5788
▁reflect	-5789
▁daughter	-5790
▁surprising	-5791
▁differences	-5792
2,	-5793
估计	-5794
州的	-5795
投票	-5796
相对	-5797
说是	-5798
iam	-5799
▁全球	-5800
▁第三	-5801
了不起	-5802
今天的	-5803
有一天	-5804
的时代	-5805
uing	-5806
istry	-5807
▁wire	-5808
▁basis	-5809
▁feels	-5810
▁twice	-5811
▁reduce	-5812
▁agricult	-5813
▁original	-5814
▁emotional	-5815
呈现	-5816
应对	-5817
旅程	-5818
用它	-5819
舞台	-5820
评论	-5821
▁Mc	-5822
也不会	-5823
▁我喜欢	-5824
每个人都	-5825
house	-5826
icles	-5827
inate	-5828
▁Russ	-5829
▁lack	-5830
临床	-5831
乐观	-5832
供应	-5833
具体	-5834
前面	-5835
去年	-5836
合理	-5837
感知	-5838
算法	-5839
超越	-5840
▁Ro	-5841
▁Sc	-5842
发展的	-5843
在哪里	-5844
我希望	-5845
的概念	-5846
▁我发现	-5847
▁conc	-5848
▁Mexic	-5849
▁laugh	-5850
▁lights	-5851
▁answers	-5852
▁missing	-5853
▁noticed	-5854
▁海	-5855
取决	-5856
合适	-5857
忘记	-5858
每次	-5859
版本	-5860
玩具	-5861
进来	-5862
可能的	-5863
我们都	-5864
自行车	-5865
empt	-5866
▁mid	-5867
ander	-5868
▁Rich	-5869
ception	-5870
▁aspect	-5871
▁deliver	-5872
▁stopped	-5873
▁efficient	-5874
哪个	-5875
字母	-5876
把我	-5877
极其	-5878
激动	-5879
相比	-5880
设想	-5881
Why	-5882
tle	-5883
一系列	-5884
我已经	-5885
没什么	-5886
这不是	-5887
reet	-5888
▁fat	-5889
▁hom	-5890
世界上最	-5891
ratic	-5892
▁Will	-5893
▁fort	-5894
▁对我来说	-5895
▁rapid	-5896
▁satell	-5897
▁members	-5898
▁spending	-5899
45	-5900
gy	-5901
交谈	-5902
人和	-5903
共享	-5904
极端	-5905
症状	-5906
rog	-5907
ste	-5908
同一个	-5909
注意力	-5910
▁vast	-5911
▁tissue	-5912
▁helping	-5913
▁molecules	-5914
伊朗	-5915
伟大	-5916
你想	-5917
回事	-5918
大气	-5919
标志	-5920
物品	-5921
IDS	-5922
ees	-5923
val	-5924
幻灯片	-5925
所谓的	-5926
▁在一个	-5927
▁尤其是	-5928
ooper	-5929
rical	-5930
某种程度上	-5931
▁shock	-5932
▁window	-5933
▁capture	-5934
▁diversity	-5935
不幸	-5936
主意	-5937
出版	-5938
着的	-5939
粒子	-5940
▁CO	-5941
▁根据	-5942
的时刻	-5943
的行为	-5944
真的很	-5945
那就是	-5946
icon	-5947
reci	-5948
▁San	-5949
▁hus	-5950
▁我是说	-5951
erson	-5952
▁notion	-5953
▁passed	-5954
地说	-5955
开心	-5956
旁边	-5957
渴望	-5958
向你们	-5959
失去了	-5960
应该是	-5961
▁cru	-5962
othes	-5963
▁vacc	-5964
▁wide	-5965
▁想象一下	-5966
▁Great	-5967
▁party	-5968
▁degrees	-5969
▁inspired	-5970
▁industrial	-5971
从事	-5972
同一	-5973
的书	-5974
简直	-5975
gth	-5976
▁Gu	-5977
发现的	-5978
1000	-5979
vest	-5980
▁Web	-5981
一个问题	-5982
这些问题	-5983
▁于是我们	-5984
rength	-5985
▁crowd	-5986
▁spaces	-5987
▁hearing	-5988
▁communication	-5989
左边	-5990
开车	-5991
拒绝	-5992
猴子	-5993
还能	-5994
产生了	-5995
只需要	-5996
的速度	-5997
ears	-5998
▁我当时	-5999
▁这些是	-6000
cript	-6001
▁Mich	-6002
▁gold	-6003
▁join	-6004
▁scan	-6005
▁trib	-6006
▁10,000	-6007
▁eating	-6008
▁flight	-6009
▁bringing	-6010
ae	-6011
依靠	-6012
就有	-6013
有时	-6014
疑问	-6015
行走	-6016
转移	-6017
逻辑	-6018
son	-6019
▁Ed	-6020
取决于	-6021
如果我	-6022
让人们	-6023
aced	-6024
ason	-6025
▁ban	-6026
▁克里斯	-6027
▁visit	-6028
▁broken	-6029
▁responsibility	-6030
ri	-6031
在的	-6032
得了	-6033
气体	-6034
流感	-6035
这位	-6036
黑人	-6037
不一样	-6038
动物的	-6039
hand	-6040
▁Dar	-6041
▁Par	-6042
的情况下	-6043
▁Over	-6044
▁none	-6045
▁race	-6046
▁rare	-6047
▁我们应该	-6048
▁birds	-6049
▁coffee	-6050
▁desert	-6051
▁seemed	-6052
▁strength	-6053
▁background	-6054
▁differently	-6055
发布	-6056
尊重	-6057
成就	-6058
标记	-6059
每一	-6060
稳定	-6061
街道	-6062
角落	-6063
长期	-6064
ada	-6065
reg	-6066
▁最近	-6067
▁突然	-6068
惊人的	-6069
我们也	-6070
▁host	-6071
▁puzz	-6072
▁stem	-6073
▁played	-6074
▁identity	-6075
▁mountain	-6076
▁sustainable	-6077
▁opportunities	-6078
EO	-6079
my	-6080
▁$	-6081
▁才	-6082
▁放	-6083
▁爱	-6084
图表	-6085
就要	-6086
死去	-6087
▁成为	-6088
基金会	-6089
band	-6090
term	-6091
▁ver	-6092
▁gene	-6093
▁photo	-6094
osystem	-6095
▁breast	-6096
▁easier	-6097
▁sexual	-6098
▁mission	-6099
▁studying	-6100
▁experiences	-6101
9,	-6102
倾向	-6103
效率	-6104
看了	-6105
维持	-6106
规划	-6107
说服	-6108
调整	-6109
重大	-6110
黑暗	-6111
▁En	-6112
▁将会	-6113
你自己	-6114
全新的	-6115
我自己	-6116
▁Con	-6117
▁我们不	-6118
▁我们把	-6119
▁这是一种	-6120
▁dinos	-6121
▁dying	-6122
ruption	-6123
▁gotten	-6124
▁target	-6125
▁volunt	-6126
▁artists	-6127
▁sharing	-6128
▁addition	-6129
21	-6130
7,	-6131
hy	-6132
伙伴	-6133
德里	-6134
总结	-6135
我和	-6136
提升	-6137
深刻	-6138
起了	-6139
cop	-6140
rel	-6141
▁仅仅	-6142
▁使得	-6143
▁观众	-6144
唯一的	-6145
我们不	-6146
的部分	-6147
olds	-6148
▁exer	-6149
▁swim	-6150
▁Middle	-6151
▁consid	-6152
▁genome	-6153
▁infect	-6154
▁transm	-6155
▁creates	-6156
▁classroom	-6157
▁commercial	-6158
▁tremendous	-6159
了吗	-6160
动机	-6161
形态	-6162
睡眠	-6163
这点	-6164
是关于	-6165
的机会	-6166
的重要	-6167
rael	-6168
发展中国家	-6169
aining	-6170
icking	-6171
▁magaz	-6172
▁fairly	-6173
▁ecosystem	-6174
▁relationships	-6175
8,	-6176
oe	-6177
你有	-6178
公平	-6179
决策	-6180
后果	-6181
居民	-6182
策略	-6183
虚拟	-6184
轨道	-6185
▁NA	-6186
传统的	-6187
完美的	-6188
所说的	-6189
▁Aud	-6190
▁tum	-6191
▁你必须	-6192
▁forg	-6193
▁trip	-6194
▁cheap	-6195
▁pleas	-6196
▁landscape	-6197
▁「	-6198
主题	-6199
传染	-6200
前进	-6201
名叫	-6202
在一	-6203
奖励	-6204
少年	-6205
演示	-6206
转化	-6207
隐藏	-6208
irt	-6209
的所有	-6210
飞行器	-6211
isco	-6212
▁Nob	-6213
▁alt	-6214
▁Bill	-6215
▁hall	-6216
ifying	-6217
▁brand	-6218
▁climb	-6219
▁mouth	-6220
▁shift	-6221
▁batter	-6222
5%	-6223
mp	-6224
两年	-6225
古老	-6226
实践	-6227
将其	-6228
曲线	-6229
最初	-6230
生意	-6231
精确	-6232
金属	-6233
▁PM	-6234
▁一直	-6235
▁才能	-6236
他们说	-6237
任何人	-6238
充满了	-6239
在这些	-6240
基本的	-6241
自闭症	-6242
roud	-6243
▁fab	-6244
▁fol	-6245
▁ing	-6246
▁因为这	-6247
没有什么	-6248
idden	-6249
ipped	-6250
rogen	-6251
▁hack	-6252
▁1,000	-6253
▁fully	-6254
▁lucky	-6255
illiant	-6256
▁Thanks	-6257
▁sector	-6258
▁describe	-6259
▁structures	-6260
▁necessarily	-6261
ij	-6262
一致	-6263
事业	-6264
哪儿	-6265
客户	-6266
强大	-6267
教学	-6268
演员	-6269
纳米	-6270
综合	-6271
舞蹈	-6272
色列	-6273
边缘	-6274
▁1,	-6275
▁过去	-6276
创造力	-6277
小小的	-6278
的第一	-6279
▁400	-6280
▁reb	-6281
▁你需要	-6282
我们自己	-6283
▁epide	-6284
▁habit	-6285
▁parad	-6286
▁brings	-6287
▁demand	-6288
▁integr	-6289
▁nearly	-6290
▁phones	-6291
▁attract	-6292
▁knowing	-6293
▁markets	-6294
▁entirely	-6295
万人	-6296
代码	-6297
会儿	-6298
启动	-6299
回去	-6300
外面	-6301
带到	-6302
录像	-6303
望远	-6304
穿着	-6305
肌肉	-6306
脆弱	-6307
ett	-6308
mon	-6309
有效的	-6310
的项目	-6311
▁ske	-6312
▁tom	-6313
▁wis	-6314
pping	-6315
▁Good	-6316
▁plat	-6317
▁accom	-6318
▁museum	-6319
▁imagination	-6320
4,	-6321
右边	-6322
指数	-6323
看过	-6324
▁Ne	-6325
▁ur	-6326
的人生	-6327
Tube	-6328
▁但他们	-6329
▁bread	-6330
▁negative	-6331
丈夫	-6332
死了	-6333
活跃	-6334
特定	-6335
犹太	-6336
致力	-6337
覆盖	-6338
识别	-6339
领袖	-6340
ius	-6341
▁帮助	-6342
望远镜	-6343
▁tun	-6344
▁但是在	-6345
▁现在我	-6346
▁mort	-6347
▁我们希望	-6348
orders	-6349
▁Israel	-6350
▁advant	-6351
▁correct	-6352
▁figured	-6353
▁designers	-6354
不足	-6355
人体	-6356
好奇	-6357
律师	-6358
没法	-6359
袭击	-6360
inc	-6361
▁Ob	-6362
创造了	-6363
我们将	-6364
是我的	-6365
自然的	-6366
edic	-6367
ysis	-6368
▁很多人	-6369
▁我们从	-6370
▁Iran	-6371
▁appl	-6372
elling	-6373
▁accur	-6374
▁liber	-6375
▁transp	-6376
▁concent	-6377
▁matters	-6378
▁partners	-6379
▁religious	-6380
▁definition	-6381
▁leadership	-6382
▁competition	-6383
人士	-6384
印象	-6385
旋转	-6386
转换	-6387
lim	-6388
urd	-6389
▁随着	-6390
就开始	-6391
的事实	-6392
▁因为在	-6393
▁然后你	-6394
itely	-6395
▁seed	-6396
ording	-6397
▁enter	-6398
▁proud	-6399
▁yellow	-6400
▁Twitter	-6401
▁forever	-6402
▁traffic	-6403
▁turning	-6404
▁benefits	-6405
▁possibility	-6406
ef	-6407
▁数	-6408
企鹅	-6409
平方	-6410
所需	-6411
美洲	-6412
葡萄	-6413
谈话	-6414
震惊	-6415
atr	-6416
oop	-6417
▁这也	-6418
干细胞	-6419
类似的	-6420
美丽的	-6421
非洲的	-6422
黑猩猩	-6423
ford	-6424
mark	-6425
▁197	-6426
▁让他们	-6427
告诉他们	-6428
based	-6429
▁Paul	-6430
▁bomb	-6431
▁note	-6432
▁repe	-6433
▁作为一个	-6434
▁French	-6435
▁inform	-6436
▁appreci	-6437
▁emotions	-6438
▁下	-6439
一份	-6440
一生	-6441
单词	-6442
真相	-6443
达尔	-6444
▁Ha	-6445
▁Tr	-6446
▁发现	-6447
听说过	-6448
段时间	-6449
肯尼亚	-6450
▁150	-6451
▁hyp	-6452
基础设施	-6453
ively	-6454
using	-6455
▁这些都是	-6456
dimens	-6457
isible	-6458
▁metap	-6459
▁fashion	-6460
▁foreign	-6461
▁restaur	-6462
▁Actually	-6463
▁organisms	-6464
▁importantly	-6465
1.	-6466
两者	-6467
作家	-6468
农民	-6469
回应	-6470
存活	-6471
强调	-6472
手指	-6473
教师	-6474
混乱	-6475
着手	-6476
穆斯	-6477
紧张	-6478
▁Mr	-6479
▁她的	-6480
▁我能	-6481
万美元	-6482
不只是	-6483
个例子	-6484
在这儿	-6485
打电话	-6486
的生物	-6487
cest	-6488
▁bud	-6489
这个故事	-6490
▁burn	-6491
ography	-6492
▁colors	-6493
▁Sometimes	-6494
▁necessary	-6495
▁哦	-6496
不停	-6497
图案	-6498
恒星	-6499
改进	-6500
文件	-6501
模仿	-6502
金钱	-6503
▁印度	-6504
感受到	-6505
的角度	-6506
知道的	-6507
穆斯林	-6508
这些数据	-6509
celer	-6510
▁cand	-6511
▁cogn	-6512
▁rout	-6513
▁shop	-6514
你可以看到	-6515
▁frequ	-6516
▁helps	-6517
▁accident	-6518
▁compared	-6519
▁distance	-6520
▁opposite	-6521
▁creatures	-6522
RI	-6523
上有	-6524
专注	-6525
去看	-6526
发射	-6527
富有	-6528
斗争	-6529
称作	-6530
营养	-6531
费用	-6532
▁一位	-6533
▁而在	-6534
是怎样	-6535
的学生	-6536
相关的	-6537
ured	-6538
▁More	-6539
▁giant	-6540
▁river	-6541
artment	-6542
lection	-6543
▁bridge	-6544
▁charge	-6545
ulations	-6546
▁argument	-6547
Ch	-6548
▁,	-6549
▁《	-6550
全国	-6551
商品	-6552
培训	-6553
对象	-6554
成立	-6555
改造	-6556
效应	-6557
更有	-6558
样本	-6559
灵感	-6560
环保	-6561
赋予	-6562
远的	-6563
add	-6564
像这样	-6565
怎么办	-6566
还可以	-6567
▁Fin	-6568
▁Nor	-6569
▁在那里	-6570
▁这是在	-6571
我们能够	-6572
每一个人	-6573
stein	-6574
▁bone	-6575
▁cred	-6576
▁chann	-6577
▁novel	-6578
▁tough	-6579
▁ancest	-6580
▁dreams	-6581
▁physic	-6582
▁stream	-6583
▁ancient	-6584
▁failure	-6585
▁leading	-6586
▁moments	-6587
▁elements	-6588
▁majority	-6589
▁philosoph	-6590
▁开	-6591
便是	-6592
它会	-6593
明确	-6594
毒品	-6595
谈到	-6596
重建	-6597
▁Me	-6598
▁政府	-6599
▁是在	-6600
企业家	-6601
因斯坦	-6602
很简单	-6603
vere	-6604
▁tor	-6605
▁vul	-6606
▁在美国	-6607
▁Keny	-6608
▁shel	-6609
ifically	-6610
▁balance	-6611
▁kilomet	-6612
▁regular	-6613
▁require	-6614
▁typical	-6615
▁suffering	-6616
▁responsible	-6617
ux	-6618
保留	-6619
分裂	-6620
埃及	-6621
意见	-6622
矛盾	-6623
种植	-6624
视角	-6625
都被	-6626
销售	-6627
▁提供	-6628
aria	-6629
▁cla	-6630
生态系统	-6631
water	-6632
▁Asia	-6633
▁maint	-6634
▁weird	-6635
▁convin	-6636
▁events	-6637
▁attempt	-6638
▁planets	-6639
▁platform	-6640
▁particles	-6641
5,	-6642
不对	-6643
关联	-6644
在了	-6645
寻常	-6646
展开	-6647
影片	-6648
愿望	-6649
掌声	-6650
澳大	-6651
照顾	-6652
直觉	-6653
瞬间	-6654
至今	-6655
很有趣	-6656
的关系	-6657
pper	-6658
ties	-6659
vity	-6660
▁amb	-6661
▁egg	-6662
▁大部分	-6663
就是这样	-6664
iable	-6665
▁ship	-6666
▁teen	-6667
▁faces	-6668
▁related	-6669
▁intellect	-6670
dimensional	-6671
仪器	-6672
充分	-6673
抓住	-6674
提取	-6675
教堂	-6676
来讲	-6677
清晰	-6678
片段	-6679
给他	-6680
象征	-6681
ara	-6682
▁Su	-6683
▁是否	-6684
▁每年	-6685
研究的	-6686
非常有	-6687
非常的	-6688
▁Big	-6689
▁Col	-6690
▁ble	-6691
▁Take	-6692
▁我们认为	-6693
ulated	-6694
▁adapt	-6695
connect	-6696
▁dollar	-6697
▁British	-6698
▁Richard	-6699
▁emotion	-6700
ification	-6701
▁strategy	-6702
▁influence	-6703
▁institution	-6704
0.	-6705
1,	-6706
3,	-6707
中最	-6708
前的	-6709
南非	-6710
受害	-6711
处在	-6712
很久	-6713
愤怒	-6714
符合	-6715
400	-6716
ris	-6717
▁其他	-6718
▁叫做	-6719
▁想想	-6720
了解到	-6721
提到的	-6722
致力于	-6723
告诉大家	-6724
澳大利亚	-6725
▁Once	-6726
▁core	-6727
▁argue	-6728
▁legal	-6729
▁newsp	-6730
▁noise	-6731
▁double	-6732
▁signal	-6733
▁However	-6734
▁brother	-6735
▁shouldn	-6736
▁studied	-6737
▁concerned	-6738
▁president	-6739
▁亚	-6740
为此	-6741
围绕	-6742
头脑	-6743
子上	-6744
尼日	-6745
笔记	-6746
还会	-6747
预防	-6748
zen	-6749
▁1.	-6750
世纪的	-6751
你必须	-6752
的人类	-6753
▁nor	-6754
▁bear	-6755
▁chim	-6756
▁poet	-6757
atures	-6758
▁calls	-6759
▁cooper	-6760
▁remote	-6761
▁destroy	-6762
▁holding	-6763
▁phenomenon	-6764
kn	-6765
专利	-6766
争论	-6767
人工	-6768
即将	-6769
发光	-6770
奇迹	-6771
拿着	-6772
摆脱	-6773
放大	-6774
无人	-6775
无所	-6776
艰难	-6777
进展	-6778
送到	-6779
难道	-6780
价值观	-6781
组织的	-6782
athy	-6783
▁而这些	-6784
▁Amaz	-6785
▁Bang	-6786
▁held	-6787
▁prost	-6788
▁subst	-6789
▁bright	-6790
▁meters	-6791
ibilities	-6792
处的	-6793
宣传	-6794
火箭	-6795
特性	-6796
老年	-6797
重点	-6798
ino	-6799
uls	-6800
地球的	-6801
大规模	-6802
对我说	-6803
拥有的	-6804
死亡率	-6805
被称为	-6806
word	-6807
▁mos	-6808
throp	-6809
▁hell	-6810
itable	-6811
▁cycle	-6812
▁north	-6813
▁quote	-6814
▁truck	-6815
▁photos	-6816
▁pounds	-6817
▁vulner	-6818
▁install	-6819
▁prototy	-6820
▁Audience	-6821
▁brilliant	-6822
化石	-6823
华盛	-6824
情形	-6825
是谁	-6826
有机	-6827
流动	-6828
set	-6829
▁改变	-6830
和我们	-6831
图书馆	-6832
带来了	-6833
进行了	-6834
ager	-6835
roll	-6836
ulpt	-6837
vant	-6838
▁bag	-6839
▁ton	-6840
▁unc	-6841
▁mill	-6842
uments	-6843
▁Niger	-6844
▁coast	-6845
▁stuck	-6846
▁sculpt	-6847
▁previous	-6848
一台	-6849
人物	-6850
人群	-6851
优势	-6852
像我	-6853
制的	-6854
变的	-6855
指出	-6856
是你	-6857
研发	-6858
邻居	-6859
car	-6860
▁Fl	-6861
▁Gl	-6862
做一些	-6863
华盛顿	-6864
aker	-6865
care	-6866
▁Did	-6867
▁tit	-6868
▁当他们	-6869
▁Very	-6870
▁hate	-6871
▁narr	-6872
▁seat	-6873
▁tast	-6874
forest	-6875
idents	-6876
▁moves	-6877
▁offer	-6878
▁prior	-6879
▁corpor	-6880
▁lesson	-6881
▁acceler	-6882
▁counter	-6883
▁billions	-6884
▁consciousness	-6885
St	-6886
专门	-6887
中东	-6888
之内	-6889
寻求	-6890
应当	-6891
损失	-6892
祖先	-6893
秒钟	-6894
衡量	-6895
igr	-6896
omy	-6897
十年代	-6898
技术的	-6899
时间的	-6900
更大的	-6901
朋友们	-6902
enty	-6903
urch	-6904
▁odd	-6905
▁rot	-6906
▁它可以	-6907
大多数人	-6908
itute	-6909
▁adop	-6910
▁bound	-6911
▁lunch	-6912
▁finger	-6913
▁grandm	-6914
▁letter	-6915
ographic	-6916
▁weapons	-6917
▁document	-6918
▁construct	-6919
▁university	-6920
do	-6921
▁该	-6922
严肃	-6923
传感	-6924
冒险	-6925
地上	-6926
将它	-6927
惊奇	-6928
措施	-6929
村庄	-6930
那一	-6931
高度	-6932
▁ju	-6933
的样子	-6934
造成的	-6935
oted	-6936
▁fle	-6937
▁und	-6938
▁特别是	-6939
▁这些人	-6940
接下来的	-6941
inist	-6942
verse	-6943
▁disp	-6944
▁我们正在	-6945
▁所以他们	-6946
ctions	-6947
▁chick	-6948
▁leads	-6949
▁mouse	-6950
▁wheel	-6951
▁husband	-6952
▁discovery	-6953
一百	-6954
一遍	-6955
中央	-6956
众人	-6957
加州	-6958
对方	-6959
所能	-6960
本来	-6961
的呢	-6962
稍微	-6963
致命	-6964
贵的	-6965
aff	-6966
▁正是	-6967
你需要	-6968
社会的	-6969
让你们	-6970
oses	-6971
▁App	-6972
▁我们用	-6973
▁我已经	-6974
什么时候	-6975
解决问题	-6976
ulous	-6977
▁2000	-6978
▁boat	-6979
▁edge	-6980
▁iron	-6981
▁embra	-6982
▁faith	-6983
▁indic	-6984
▁motor	-6985
▁closed	-6986
▁failed	-6987
▁micros	-6988
▁opened	-6989
▁justice	-6990
▁ultimately	-6991
%,	-6992
一片	-6993
加拿	-6994
合成	-6995
夏天	-6996
大小	-6997
婚姻	-6998
展览	-6999
引擎	-7000
当作	-7001
才会	-7002
氧气	-7003
私人	-7004
背后	-7005
腐败	-7006
ael	-7007
▁我把	-7008
▁确实	-7009
一开始	-7010
做这个	-7011
微生物	-7012
科医生	-7013
anes	-7014
thes	-7015
▁Gen	-7016
▁See	-7017
▁joy	-7018
▁我们是	-7019
apers	-7020
▁poem	-7021
▁crash	-7022
▁sport	-7023
▁talks	-7024
▁begins	-7025
▁deeply	-7026
▁raised	-7027
▁Washing	-7028
▁element	-7029
▁leaving	-7030
▁interaction	-7031
6,	-7032
地位	-7033
天然	-7034
扮演	-7035
推动	-7036
潜水	-7037
级的	-7038
进了	-7039
道理	-7040
高中	-7041
lin	-7042
▁拥有	-7043
▁顺便	-7044
不喜欢	-7045
发明了	-7046
听到的	-7047
的内容	-7048
cket	-7049
▁pet	-7050
agers	-7051
eared	-7052
▁bees	-7053
▁grass	-7054
▁unlike	-7055
▁replace	-7056
▁trained	-7057
▁followed	-7058
▁childhood	-7059
▁invisible	-7060
▁otherwise	-7061
▁investment	-7062
上学	-7063
听说	-7064
敏感	-7065
死于	-7066
穿越	-7067
纤维	-7068
说到	-7069
---	-7070
▁利用	-7071
安德森	-7072
完成的	-7073
建筑师	-7074
有没有	-7075
特定的	-7076
gypt	-7077
尼日利亚	-7078
illed	-7079
ublic	-7080
▁grad	-7081
▁king	-7082
▁moon	-7083
▁你会发现	-7084
urally	-7085
▁click	-7086
▁crime	-7087
▁adults	-7088
▁breath	-7089
▁virtual	-7090
▁European	-7091
▁perfectly	-7092
▁Washington	-7093
▁professional	-7094
制定	-7095
发电	-7096
年了	-7097
得很	-7098
整体	-7099
疟疾	-7100
练习	-7101
年轻的	-7102
我现在	-7103
特别的	-7104
的这个	-7105
那么多	-7106
▁Res	-7107
▁世界上	-7108
▁看起来	-7109
其中一个	-7110
在我们的	-7111
我们知道	-7112
icity	-7113
▁frag	-7114
▁但是他们	-7115
terday	-7116
▁Three	-7117
▁sorry	-7118
▁dinner	-7119
▁versus	-7120
▁wisdom	-7121
▁capable	-7122
▁wearing	-7123
▁believed	-7124
▁fighting	-7125
▁Australia	-7126
▁described	-7127
▁businesses	-7128
▁constantly	-7129
▁fascinating	-7130
au	-7131
gn	-7132
▁五	-7133
▁带	-7134
动画	-7135
场的	-7136
好事	-7137
对吗	-7138
尔夫	-7139
层次	-7140
差别	-7141
引发	-7142
忽略	-7143
数的	-7144
杉矶	-7145
正如	-7146
现状	-7147
阳光	-7148
陷入	-7149
cra	-7150
ked	-7151
▁Sm	-7152
▁去年	-7153
在我的	-7154
洛杉矶	-7155
的那些	-7156
iage	-7157
rand	-7158
▁我不是	-7159
我们如何	-7160
这张照片	-7161
▁Each	-7162
▁ants	-7163
▁fresh	-7164
▁walls	-7165
▁Mexico	-7166
▁benefit	-7167
▁despite	-7168
▁watched	-7169
▁separate	-7170
▁unfortunately	-7171
2.	-7172
PA	-7173
一边	-7174
上千	-7175
加上	-7176
场景	-7177
对称	-7178
志愿	-7179
礼物	-7180
血液	-7181
预算	-7182
Yes	-7183
pet	-7184
▁CA	-7185
▁上面	-7186
▁必须	-7187
▁除非	-7188
安全的	-7189
的一种	-7190
cked	-7191
▁GDP	-7192
▁gar	-7193
最重要的	-7194
▁NASA	-7195
▁agre	-7196
▁fold	-7197
▁pros	-7198
▁purs	-7199
▁spot	-7200
▁wear	-7201
▁whom	-7202
▁Egypt	-7203
▁Green	-7204
▁eleph	-7205
▁surge	-7206
▁artific	-7207
▁factory	-7208
▁soldiers	-7209
▁advantage	-7210
基督	-7211
小说	-7212
很小	-7213
最大	-7214
空中	-7215
跟我	-7216
gar	-7217
osh	-7218
▁大脑	-7219
▁自己	-7220
▁设计	-7221
也不是	-7222
好消息	-7223
心脏病	-7224
是为了	-7225
美好的	-7226
这个人	-7227
This	-7228
uros	-7229
▁Min	-7230
▁Red	-7231
▁Sun	-7232
▁我记得	-7233
做些什么	-7234
▁hasn	-7235
▁horr	-7236
▁reve	-7237
▁我们开始	-7238
▁names	-7239
▁paint	-7240
▁degree	-7241
▁reward	-7242
▁therap	-7243
▁insight	-7244
▁succeed	-7245
▁treated	-7246
▁magazine	-7247
▁planning	-7248
▁survival	-7249
▁Everybody	-7250
为何	-7251
北极	-7252
多了	-7253
娱乐	-7254
标签	-7255
着我	-7256
移植	-7257
采访	-7258
陌生	-7259
首歌	-7260
cil	-7261
▁有着	-7262
一件事	-7263
城市的	-7264
很多的	-7265
的变化	-7266
组成的	-7267
▁我们想	-7268
▁或者说	-7269
alley	-7270
▁anti	-7271
▁nutr	-7272
▁soil	-7273
▁chair	-7274
▁exhib	-7275
▁round	-7276
▁master	-7277
▁paying	-7278
▁article	-7279
▁invited	-7280
▁everyday	-7281
▁sequence	-7282
▁civilization	-7283
▁前	-7284
作出	-7285
出发	-7286
分离	-7287
加速	-7288
反馈	-7289
imp	-7290
oom	-7291
别人的	-7292
已经被	-7293
是如此	-7294
部电影	-7295
odes	-7296
▁196	-7297
▁due	-7298
▁fed	-7299
essed	-7300
ortex	-7301
right	-7302
▁Life	-7303
▁empt	-7304
各种各样的	-7305
ipping	-7306
▁Franc	-7307
▁brief	-7308
▁equal	-7309
▁slowly	-7310
▁symmet	-7311
▁drawing	-7312
▁married	-7313
▁economics	-7314
▁engineers	-7315
▁surprised	-7316
争议	-7317
修复	-7318
再生	-7319
掉了	-7320
短信	-7321
这段	-7322
雕塑	-7323
ald	-7324
exp	-7325
▁真正	-7326
严重的	-7327
其实是	-7328
运动员	-7329
▁Bar	-7330
▁cos	-7331
▁dry	-7332
▁gay	-7333
经济学家	-7334
known	-7335
▁gard	-7336
▁所有这些	-7337
▁equip	-7338
▁folks	-7339
▁expert	-7340
▁extend	-7341
▁microb	-7342
▁compare	-7343
▁highest	-7344
▁managed	-7345
▁volunte	-7346
▁creation	-7347
▁feedback	-7348
▁finished	-7349
▁surprise	-7350
▁cognitive	-7351
▁先	-7352
公里	-7353
分配	-7354
地下	-7355
层的	-7356
想像	-7357
构建	-7358
观看	-7359
规律	-7360
达成	-7361
难题	-7362
饮食	-7363
高速	-7364
黑客	-7365
ami	-7366
▁就能	-7367
▁真的	-7368
以色列	-7369
传感器	-7370
健康的	-7371
句话说	-7372
看不到	-7373
apse	-7374
▁Des	-7375
▁Her	-7376
▁pun	-7377
▁因为你	-7378
我不知道	-7379
的问题是	-7380
ength	-7381
▁Park	-7382
▁intu	-7383
▁avoid	-7384
▁attach	-7385
▁equival	-7386
▁farmers	-7387
▁languages	-7388
▁艾	-7389
不久	-7390
代的	-7391
保健	-7392
信念	-7393
南极	-7394
患有	-7395
意外	-7396
拿到	-7397
构造	-7398
点子	-7399
的前	-7400
神秘	-7401
腺癌	-7402
贝尔	-7403
▁35	-7404
▁显然	-7405
在那儿	-7406
多样性	-7407
消费者	-7408
这两个	-7409
▁你可能	-7410
▁孩子们	-7411
▁问题是	-7412
给你们看	-7413
▁Does	-7414
▁Have	-7415
▁stim	-7416
ancing	-7417
ildren	-7418
▁plane	-7419
▁shoes	-7420
issions	-7421
▁Darwin	-7422
▁circle	-7423
▁finish	-7424
▁harder	-7425
▁unless	-7426
▁airplane	-7427
▁normally	-7428
▁sentence	-7429
▁mentioned	-7430
▁operating	-7431
▁principles	-7432
代价	-7433
倾听	-7434
吃惊	-7435
地面	-7436
点的	-7437
纪录	-7438
编辑	-7439
还没	-7440
lph	-7441
为我们	-7442
aked	-7443
▁org	-7444
▁tal	-7445
▁因为他	-7446
▁opin	-7447
▁vote	-7448
ushing	-7449
▁antib	-7450
▁belong	-7451
▁caught	-7452
▁circum	-7453
▁precise	-7454
▁galaxies	-7455
▁investig	-7456
▁metaphor	-7457
▁currently	-7458
一辆	-7459
不知	-7460
了个	-7461
品牌	-7462
回报	-7463
回收	-7464
工人	-7465
承诺	-7466
指导	-7467
昨天	-7468
沿着	-7469
移民	-7470
mar	-7471
▁问题	-7472
俄罗斯	-7473
原因是	-7474
很明显	-7475
ikip	-7476
wide	-7477
▁era	-7478
▁pow	-7479
▁ves	-7480
uries	-7481
▁band	-7482
▁coal	-7483
▁crim	-7484
▁foss	-7485
▁heads	-7486
▁south	-7487
▁steps	-7488
▁academ	-7489
▁debate	-7490
▁leader	-7491
▁insects	-7492
▁mothers	-7493
▁exercise	-7494
▁resource	-7495
▁mathematics	-7496
以下	-7497
如同	-7498
得更	-7499
意大	-7500
感情	-7501
我去	-7502
热爱	-7503
着迷	-7504
紧密	-7505
irm	-7506
做到的	-7507
宇宙的	-7508
的位置	-7509
▁MIT	-7510
▁AIDS	-7511
▁fell	-7512
▁roof	-7513
▁在过去的	-7514
▁grown	-7515
▁autism	-7516
▁filled	-7517
▁gather	-7518
▁protein	-7519
▁signals	-7520
▁contract	-7521
▁identify	-7522
▁hopefully	-7523
▁statistics	-7524
▁alternative	-7525
▁consumption	-7526
▁理	-7527
地理	-7528
大陆	-7529
少的	-7530
这只	-7531
黑洞	-7532
▁Bu	-7533
▁事实	-7534
▁笑声	-7535
奇怪的	-7536
开始的	-7537
此同时	-7538
的城市	-7539
这里的	-7540
▁den	-7541
▁tox	-7542
▁我只是	-7543
▁有些人	-7544
asion	-7545
他们自己的	-7546
▁homes	-7547
entally	-7548
▁hidden	-7549
▁incent	-7550
▁motion	-7551
▁launched	-7552
▁equipment	-7553
▁corruption	-7554
▁generations	-7555
▁researchers	-7556
▁等	-7557
免疫	-7558
国会	-7559
大型	-7560
形象	-7561
得出	-7562
性别	-7563
懂得	-7564
承担	-7565
擅长	-7566
教室	-7567
海豚	-7568
潜力	-7569
芯片	-7570
融合	-7571
那天	-7572
马拉	-7573
ume	-7574
完成了	-7575
是一名	-7576
是可以	-7577
达尔文	-7578
▁mir	-7579
非常非常	-7580
▁wave	-7581
▁commit	-7582
▁fellow	-7583
ikipedia	-7584
▁testing	-7585
▁multiple	-7586
▁principle	-7587
▁equivalent	-7588
▁kilometers	-7589
If	-7590
光线	-7591
哺乳	-7592
实施	-7593
尔斯	-7594
岁时	-7595
希腊	-7596
打破	-7597
扩大	-7598
看出	-7599
突破	-7600
精彩	-7601
老人	-7602
追踪	-7603
靠近	-7604
198	-7605
eff	-7606
▁到了	-7607
因为我	-7608
▁bull	-7609
▁exch	-7610
▁categ	-7611
▁pages	-7612
▁recon	-7613
▁damage	-7614
▁exists	-7615
▁galaxy	-7616
▁movies	-7617
▁stupid	-7618
▁vessel	-7619
▁limited	-7620
▁vehicle	-7621
▁designer	-7622
▁ordinary	-7623
▁distribution	-7624
产业	-7625
仪式	-7626
农场	-7627
合法	-7628
布鲁	-7629
成年	-7630
手臂	-7631
探讨	-7632
支付	-7633
民众	-7634
立刻	-7635
肥胖	-7636
论文	-7637
运输	-7638
oot	-7639
▁El	-7640
▁ax	-7641
▁两个	-7642
意义上	-7643
iors	-7644
▁poo	-7645
他们可以	-7646
olves	-7647
print	-7648
▁arms	-7649
发生的事情	-7650
▁Kenya	-7651
▁camer	-7652
iration	-7653
▁covered	-7654
▁station	-7655
▁seriously	-7656
▁considered	-7657
▁transformation	-7658
分开	-7659
它在	-7660
快的	-7661
所未	-7662
抑郁	-7663
显微	-7664
激发	-7665
诞生	-7666
起源	-7667
远远	-7668
链接	-7669
集体	-7670
骨骼	-7671
bel	-7672
▁应该	-7673
大学的	-7674
许多人	-7675
engu	-7676
▁Bas	-7677
▁Ben	-7678
▁Hum	-7679
▁Pal	-7680
▁cow	-7681
▁cro	-7682
▁hun	-7683
estic	-7684
lands	-7685
▁flat	-7686
▁hadn	-7687
▁lawy	-7688
▁meat	-7689
▁他们可以	-7690
▁Times	-7691
▁sympt	-7692
▁Amazon	-7693
▁leaves	-7694
▁sister	-7695
▁thinks	-7696
▁England	-7697
▁warming	-7698
▁weather	-7699
▁worried	-7700
▁designing	-7701
奇妙	-7702
奴隶	-7703
推广	-7704
显著	-7705
格兰	-7706
沮丧	-7707
清洁	-7708
点击	-7709
留下	-7710
观的	-7711
里有	-7712
▁99	-7713
▁一切	-7714
▁每次	-7715
或者是	-7716
的观点	-7717
ests	-7718
uous	-7719
▁Sim	-7720
▁所以说	-7721
什么样的	-7722
▁Pres	-7723
▁abst	-7724
thetic	-7725
▁daily	-7726
▁dolph	-7727
▁lifet	-7728
▁quiet	-7729
▁users	-7730
oration	-7731
vention	-7732
▁George	-7733
▁Street	-7734
▁muscle	-7735
▁oceans	-7736
▁select	-7737
▁increasingly	-7738
小组	-7739
携带	-7740
民族	-7741
生素	-7742
蜘蛛	-7743
表情	-7744
麦克	-7745
uge	-7746
▁用来	-7747
▁经过	-7748
的就是	-7749
的演讲	-7750
▁Rem	-7751
▁Rep	-7752
▁每一个	-7753
▁第二个	-7754
craft	-7755
iques	-7756
▁King	-7757
▁bits	-7758
▁rein	-7759
acters	-7760
▁2,000	-7761
▁limit	-7762
▁saved	-7763
▁astron	-7764
▁picked	-7765
▁reform	-7766
▁safety	-7767
▁experts	-7768
▁molecule	-7769
▁received	-7770
▁Everything	-7771
▁associated	-7772
▁characters	-7773
你不	-7774
吸收	-7775
国的	-7776
少数	-7777
引导	-7778
数以	-7779
毕竟	-7780
浏览	-7781
禁止	-7782
街上	-7783
ato	-7784
och	-7785
▁变成	-7786
▁建立	-7787
大家都	-7788
成一个	-7789
有一种	-7790
的动物	-7791
的数量	-7792
的空间	-7793
面临的	-7794
aled	-7795
cipl	-7796
▁shr	-7797
▁tail	-7798
▁facts	-7799
▁mosqu	-7800
▁scene	-7801
osition	-7802
▁fourth	-7803
▁origin	-7804
▁toward	-7805
▁property	-7806
之下	-7807
保存	-7808
商店	-7809
开展	-7810
更高	-7811
玩笑	-7812
蚊子	-7813
设置	-7814
评估	-7815
▁答案	-7816
可怕的	-7817
的工具	-7818
ocol	-7819
semb	-7820
▁Dan	-7821
▁他们都	-7822
anted	-7823
organ	-7824
▁gall	-7825
▁lapt	-7826
▁myth	-7827
▁valu	-7828
▁layer	-7829
▁battle	-7830
▁caused	-7831
▁keeping	-7832
▁letters	-7833
▁convinced	-7834
▁artificial	-7835
.'	-7836
▁您	-7837
▁过	-7838
三维	-7839
内的	-7840
几百	-7841
单一	-7842
土壤	-7843
地点	-7844
定位	-7845
屋顶	-7846
抽象	-7847
更为	-7848
石头	-7849
Don	-7850
▁怎么	-7851
个人的	-7852
意义的	-7853
cale	-7854
gged	-7855
▁pil	-7856
▁但是这	-7857
▁我想要	-7858
了我们的	-7859
neath	-7860
▁puts	-7861
▁tick	-7862
▁tour	-7863
▁其中一个	-7864
ensity	-7865
itness	-7866
▁Would	-7867
▁heavy	-7868
▁polic	-7869
▁toile	-7870
▁fields	-7871
▁frustr	-7872
▁houses	-7873
▁implic	-7874
▁voices	-7875
▁battery	-7876
▁curious	-7877
▁dealing	-7878
▁setting	-7879
▁theater	-7880
▁Japanese	-7881
▁dimensions	-7882
▁electrical	-7883
▁comfortable	-7884
▁experienced	-7885
▁intellectual	-7886
三十	-7887
反映	-7888
尔的	-7889
形的	-7890
玩耍	-7891
班牙	-7892
繁殖	-7893
贸易	-7894
鲨鱼	-7895
▁这项	-7896
有一点	-7897
的话题	-7898
西班牙	-7899
rict	-7900
▁Tur	-7901
▁row	-7902
▁spl	-7903
▁也可以	-7904
为什么要	-7905
只是一个	-7906
最喜欢的	-7907
▁arts	-7908
▁init	-7909
▁nerv	-7910
lation	-7911
instein	-7912
▁advert	-7913
▁dynamic	-7914
▁clinical	-7915
▁tomorrow	-7916
▁processes	-7917
▁agriculture	-7918
▁四	-7919
个性	-7920
五个	-7921
分之	-7922
单位	-7923
受伤	-7924
可是	-7925
塑造	-7926
学术	-7927
崩溃	-7928
庆祝	-7929
忽视	-7930
最高	-7931
查德	-7932
欣赏	-7933
注射	-7934
火车	-7935
玩家	-7936
符号	-7937
贫民	-7938
辐射	-7939
防止	-7940
频率	-7941
▁主要	-7942
有两个	-7943
的公司	-7944
bble	-7945
gets	-7946
roph	-7947
▁tow	-7948
▁在这些	-7949
▁没有人	-7950
任何一个	-7951
做的就是	-7952
lease	-7953
place	-7954
▁gang	-7955
▁shut	-7956
▁soph	-7957
encies	-7958
ession	-7959
lement	-7960
▁inequ	-7961
▁pengu	-7962
▁rural	-7963
▁cameras	-7964
▁illness	-7965
▁killing	-7966
▁analysis	-7967
▁reaction	-7968
▁requires	-7969
▁according	-7970
▁universal	-7971
▁consequences	-7972
▁写	-7973
▁听	-7974
▁太	-7975
▁长	-7976
也很	-7977
使我	-7978
保险	-7979
几天	-7980
原来	-7981
回顾	-7982
想的	-7983
愚蠢	-7984
统治	-7985
认同	-7986
资助	-7987
都没	-7988
▁科学	-7989
▁非洲	-7990
在座的	-7991
学生们	-7992
著名的	-7993
▁Jew	-7994
▁然后他	-7995
一段时间	-7996
▁date	-7997
▁evil	-7998
▁gift	-7999
▁tall	-8000
▁warm	-8001
▁wond	-8002
▁chain	-8003
▁perce	-8004
▁pregn	-8005
▁rates	-8006
▁veget	-8007
▁height	-8008
▁shapes	-8009
▁arrived	-8010
▁illustr	-8011
▁opening	-8012
▁advanced	-8013
▁technical	-8014
▁yesterday	-8015
▁independent	-8016
▁intelligent	-8017
In	-8018
不安	-8019
不少	-8020
为你	-8021
原本	-8022
取代	-8023
变暖	-8024
密度	-8025
当今	-8026
影像	-8027
的外	-8028
结婚	-8029
药品	-8030
马逊	-8031
ads	-8032
▁DH	-8033
我们还	-8034
提供了	-8035
特殊的	-8036
能看到	-8037
运动的	-8038
cast	-8039
▁Cam	-8040
iency	-8041
▁copy	-8042
▁diet	-8043
▁libr	-8044
▁tons	-8045
▁awful	-8046
▁compl	-8047
▁illeg	-8048
▁trials	-8049
▁conduct	-8050
▁display	-8051
▁organic	-8052
▁epidemic	-8053
▁feelings	-8054
▁whenever	-8055
▁movements	-8056
▁satellite	-8057
▁wondering	-8058
▁entrepreneurs	-8059
先进	-8060
噪音	-8061
广场	-8062
延伸	-8063
我从	-8064
推进	-8065
是用	-8066
步骤	-8067
脑海	-8068
讨厌	-8069
Hey	-8070
org	-8071
▁II	-8072
▁但你	-8073
▁在那	-8074
▁这对	-8075
一定要	-8076
停下来	-8077
几年前	-8078
看一下	-8079
进行的	-8080
▁god	-8081
▁nan	-8082
▁smo	-8083
中的一个	-8084
erves	-8085
nding	-8086
▁2010	-8087
▁soul	-8088
▁我们如何	-8089
▁Their	-8090
▁estab	-8091
▁videos	-8092
▁engineer	-8093
▁continent	-8094
▁interface	-8095
▁healthcare	-8096
▁importance	-8097
▁grandmother	-8098
五年	-8099
体会	-8100
保罗	-8101
发达	-8102
天空	-8103
局限	-8104
异常	-8105
探险	-8106
杀死	-8107
植入	-8108
满意	-8109
驱动	-8110
hab	-8111
▁45	-8112
▁把它	-8113
展示了	-8114
已经在	-8115
是一位	-8116
显微镜	-8117
有能力	-8118
mber	-8119
osis	-8120
▁Int	-8121
▁是我们	-8122
生物学家	-8123
umber	-8124
▁Kore	-8125
▁qual	-8126
▁如果他们	-8127
▁empty	-8128
▁inner	-8129
▁Canada	-8130
▁member	-8131
▁extract	-8132
▁nervous	-8133
▁sources	-8134
▁entertain	-8135
▁essential	-8136
▁organized	-8137
▁techniques	-8138
▁underneath	-8139
▁construction	-8140
▁manufacturing	-8141
hi	-8142
ta	-8143
动态	-8144
却是	-8145
安排	-8146
护士	-8147
盒子	-8148
镜头	-8149
min	-8150
▁但他	-8151
▁医生	-8152
▁女性	-8153
不平等	-8154
做到了	-8155
在你的	-8156
的食物	-8157
笔记本	-8158
获得了	-8159
领导者	-8160
因为我们	-8161
▁kick	-8162
▁lady	-8163
▁因此我们	-8164
▁stood	-8165
▁100,000	-8166
▁Britain	-8167
▁appropr	-8168
▁cartoon	-8169
▁expected	-8170
▁carefully	-8171
▁expression	-8172
▁represents	-8173
ns	-8174
▁水	-8175
世上	-8176
天文	-8177
对比	-8178
巴基	-8179
景象	-8180
激情	-8181
灵魂	-8182
百科	-8183
祖母	-8184
编码	-8185
节奏	-8186
贷款	-8187
进程	-8188
不是吗	-8189
主义的	-8190
他们所	-8191
我没有	-8192
病人的	-8193
认为是	-8194
▁Ant	-8195
▁nar	-8196
▁但是你	-8197
▁你就会	-8198
▁就可以	-8199
变得更加	-8200
我的工作	-8201
这个想法	-8202
▁dial	-8203
▁holes	-8204
▁negot	-8205
▁prove	-8206
▁School	-8207
▁explan	-8208
▁losing	-8209
▁cutting	-8210
▁sending	-8211
▁Einstein	-8212
▁password	-8213
▁struggle	-8214
▁thoughts	-8215
▁encourage	-8216
▁properties	-8217
▁possibilities	-8218
ss	-8219
ym	-8220
▁分	-8221
不像	-8222
保守	-8223
去世	-8224
平面	-8225
性和	-8226
指挥	-8227
无关	-8228
无限	-8229
极了	-8230
跟踪	-8231
这场	-8232
随机	-8233
马斯	-8234
魔术	-8235
alt	-8236
log	-8237
▁超过	-8238
▁这位	-8239
不断地	-8240
有时候	-8241
aurs	-8242
icip	-8243
ogen	-8244
▁bul	-8245
▁gap	-8246
这些事情	-8247
▁auth	-8248
▁ends	-8249
▁hide	-8250
▁user	-8251
▁weak	-8252
▁cards	-8253
▁solid	-8254
▁spoke	-8255
▁island	-8256
▁medium	-8257
▁neuros	-8258
▁Michael	-8259
▁malaria	-8260
▁roughly	-8261
▁Congress	-8262
▁valuable	-8263
▁President	-8264
▁introduce	-8265
▁molecular	-8266
▁producing	-8267
▁professor	-8268
▁connections	-8269
AR	-8270
五十	-8271
交换	-8272
住了	-8273
促进	-8274
勇气	-8275
合物	-8276
头发	-8277
小心	-8278
带有	-8279
扩展	-8280
棒了	-8281
椅子	-8282
温室	-8283
穷人	-8284
而来	-8285
花粉	-8286
远离	-8287
重视	-8288
骨头	-8289
600	-8290
ago	-8291
mas	-8292
rig	-8293
▁不能	-8294
▁我问	-8295
个国家	-8296
典型的	-8297
我们从	-8298
有机会	-8299
经历了	-8300
青少年	-8301
fish	-8302
irty	-8303
zing	-8304
▁rat	-8305
▁它们是	-8306
▁我今天	-8307
▁这一切	-8308
force	-8309
▁desk	-8310
▁enem	-8311
▁peak	-8312
▁unit	-8313
▁换句话说	-8314
▁然后他们	-8315
ension	-8316
▁colon	-8317
▁stock	-8318
▁teeth	-8319
itarian	-8320
▁players	-8321
▁generate	-8322
▁sophistic	-8323
亚洲	-8324
发送	-8325
哲学	-8326
固定	-8327
描绘	-8328
更大	-8329
航空	-8330
连续	-8331
new	-8332
▁学习	-8333
▁经济	-8334
也许会	-8335
开始了	-8336
当他们	-8337
摄像机	-8338
环境中	-8339
frie	-8340
▁Gal	-8341
▁fro	-8342
▁lat	-8343
▁lic	-8344
▁uns	-8345
▁同样的	-8346
▁所以你	-8347
▁所以在	-8348
做了一个	-8349
▁blow	-8350
▁grid	-8351
▁hang	-8352
▁isol	-8353
▁liqu	-8354
▁manip	-8355
▁budget	-8356
▁facing	-8357
▁Germany	-8358
▁location	-8359
▁marriage	-8360
▁specifically	-8361
▁及	-8362
▁斯	-8363
他是	-8364
印刷	-8365
厕所	-8366
委员	-8367
安装	-8368
定律	-8369
得知	-8370
既然	-8371
治愈	-8372
疗法	-8373
种类	-8374
讲的	-8375
隐私	-8376
▁重新	-8377
加拿大	-8378
意大利	-8379
疾病的	-8380
身体的	-8381
That	-8382
life	-8383
▁pal	-8384
联系起来	-8385
▁gain	-8386
▁shif	-8387
▁ideal	-8388
▁define	-8389
▁chemistry	-8390
▁collection	-8391
35	-8392
▁外	-8393
不去	-8394
具备	-8395
军事	-8396
差距	-8397
巴马	-8398
整合	-8399
斯的	-8400
飞船	-8401
ita	-8402
itz	-8403
▁你在	-8404
▁相反	-8405
▁自然	-8406
受害者	-8407
就像是	-8408
必须要	-8409
我相信	-8410
用一个	-8411
的经济	-8412
abet	-8413
resp	-8414
▁所以这	-8415
巴基斯坦	-8416
▁Bank	-8417
▁chap	-8418
▁pure	-8419
▁我们看到	-8420
▁broke	-8421
▁grade	-8422
▁horse	-8423
▁minim	-8424
▁deeper	-8425
▁calling	-8426
▁engaged	-8427
▁nations	-8428
▁rapidly	-8429
abilities	-8430
▁spectrum	-8431
▁Institute	-8432
▁emissions	-8433
▁existence	-8434
▁relatively	-8435
99	-8436
厨房	-8437
房屋	-8438
教会	-8439
旧金	-8440
舒服	-8441
蝙蝠	-8442
运转	-8443
部件	-8444
风格	-8445
oos	-8446
uel	-8447
▁不会	-8448
▁假设	-8449
▁无法	-8450
人们在	-8451
尽可能	-8452
当地的	-8453
形成的	-8454
政府的	-8455
旧金山	-8456
消失了	-8457
的一点	-8458
着一个	-8459
这本书	-8460
▁Rob	-8461
▁agg	-8462
▁lie	-8463
▁nur	-8464
▁就好像	-8465
一些东西	-8466
想象一下	-8467
的是什么	-8468
▁Swed	-8469
▁dots	-8470
▁drag	-8471
▁exec	-8472
▁loud	-8473
▁spin	-8474
▁我们不能	-8475
▁infin	-8476
▁liked	-8477
▁metal	-8478
▁risks	-8479
ressive	-8480
▁Anyway	-8481
▁Center	-8482
▁forced	-8483
▁fortun	-8484
▁interp	-8485
▁replic	-8486
▁partner	-8487
▁release	-8488
▁victims	-8489
▁emerging	-8490
▁lifetime	-8491
▁Francisco	-8492
▁employees	-8493
▁gentlemen	-8494
▁已	-8495
作者	-8496
写作	-8497
宣布	-8498
微笑	-8499
感官	-8500
无聊	-8501
明天	-8502
替代	-8503
棒的	-8504
法则	-8505
焦虑	-8506
遭受	-8507
ham	-8508
▁不论	-8509
▁我曾	-8510
不应该	-8511
和一个	-8512
▁Sat	-8513
▁fal	-8514
▁pip	-8515
▁ten	-8516
▁我一直	-8517
▁我没有	-8518
▁这里是	-8519
itals	-8520
▁bill	-8521
▁hurt	-8522
▁recy	-8523
▁scen	-8524
意味着什么	-8525
Google	-8526
▁sugar	-8527
▁teles	-8528
▁这就是我们	-8529
▁player	-8530
▁YouTube	-8531
▁selling	-8532
▁variety	-8533
▁trillion	-8534
▁components	-8535
▁politicians	-8536
▁出	-8537
▁重	-8538
体现	-8539
偏见	-8540
史蒂	-8541
各自	-8542
听过	-8543
字典	-8544
帮我	-8545
战略	-8546
染色	-8547
爆发	-8548
用在	-8549
皮层	-8550
确信	-8551
种子	-8552
胜利	-8553
解放	-8554
退休	-8555
esh	-8556
gra	-8557
hes	-8558
lom	-8559
▁75	-8560
▁令人	-8561
▁有趣	-8562
▁认为	-8563
▁这儿	-8564
之类的	-8565
就这样	-8566
的目标	-8567
cont	-8568
rete	-8569
▁mel	-8570
▁有很多	-8571
▁1990	-8572
▁Phil	-8573
▁acqu	-8574
▁ride	-8575
▁tank	-8576
▁但事实上	-8577
▁sides	-8578
▁sweet	-8579
▁contain	-8580
▁courage	-8581
▁concentr	-8582
▁official	-8583
▁mortality	-8584
▁introduced	-8585
▁effectively	-8586
▁evolutionary	-8587
rs	-8588
▁别	-8589
▁真	-8590
上来	-8591
交互	-8592
停车	-8593
听众	-8594
和你	-8595
圣诞	-8596
家长	-8597
将是	-8598
强的	-8599
方的	-8600
液体	-8601
激素	-8602
现今	-8603
瑞典	-8604
粮食	-8605
繁荣	-8606
罪犯	-8607
而易	-8608
诊所	-8609
诗歌	-8610
走出	-8611
ait	-8612
▁Mo	-8613
▁["	-8614
▁它在	-8615
▁我只	-8616
▁里面	-8617
将这些	-8618
幸的是	-8619
想要的	-8620
类型的	-8621
进化的	-8622
hold	-8623
what	-8624
▁Dem	-8625
▁Lad	-8626
▁在我的	-8627
就是一个	-8628
abled	-8629
▁Gree	-8630
▁Last	-8631
▁bran	-8632
▁dogs	-8633
▁flex	-8634
▁snow	-8635
▁Frank	-8636
▁Islam	-8637
▁fewer	-8638
▁flies	-8639
▁occup	-8640
▁conver	-8641
▁forgot	-8642
▁sharks	-8643
▁centers	-8644
▁carrying	-8645
▁disappear	-8646
▁radiation	-8647
▁democratic	-8648
▁depression	-8649
▁restaurant	-8650
▁combination	-8651
bl	-8652
▁仅	-8653
一句	-8654
会是	-8655
墙上	-8656
查看	-8657
树木	-8658
正义	-8659
认真	-8660
赢得	-8661
起的	-8662
饥饿	-8663
han	-8664
▁回到	-8665
▁并不	-8666
▁这次	-8667
一点点	-8668
从一个	-8669
你就会	-8670
女士们	-8671
我一直	-8672
有点像	-8673
的朋友	-8674
这么说	-8675
aren	-8676
olly	-8677
▁phr	-8678
▁我曾经	-8679
▁Coll	-8680
▁pray	-8681
▁我们能够	-8682
变得越来越	-8683
▁chart	-8684
▁reven	-8685
▁serve	-8686
▁analog	-8687
▁credit	-8688
▁fossil	-8689
▁prefer	-8690
▁status	-8691
▁primary	-8692
▁affected	-8693
▁circumst	-8694
▁cultures	-8695
▁disaster	-8696
▁graduate	-8697
▁algorithms	-8698
▁transition	-8699
一大	-8700
书籍	-8701
亿人	-8702
体重	-8703
做些	-8704
做好	-8705
捕捉	-8706
有两	-8707
框架	-8708
法案	-8709
精力	-8710
证实	-8711
试试	-8712
这幅	-8713
150	-8714
bur	-8715
eal	-8716
fit	-8717
lly	-8718
▁BF	-8719
大自然	-8720
女性的	-8721
更好地	-8722
正常的	-8723
站起来	-8724
berg	-8725
down	-8726
erge	-8727
vard	-8728
▁Art	-8729
▁Tom	-8730
▁rub	-8731
所有人都	-8732
物理学家	-8733
lying	-8734
▁Mart	-8735
▁jail	-8736
▁lies	-8737
▁maps	-8738
▁tape	-8739
▁wake	-8740
enture	-8741
▁Since	-8742
▁Steve	-8743
▁claim	-8744
▁shall	-8745
akistan	-8746
▁bubble	-8747
▁length	-8748
▁review	-8749
▁required	-8750
▁behaviors	-8751
▁chemicals	-8752
▁establish	-8753
▁management	-8754
▁mathematical	-8755
8.	-8756
公正	-8757
协议	-8758
协调	-8759
对抗	-8760
想过	-8761
成像	-8762
承受	-8763
掌控	-8764
牺牲	-8765
睡觉	-8766
美的	-8767
联邦	-8768
跨越	-8769
高效	-8770
鸟类	-8771
igm	-8772
▁它能	-8773
▁知道	-8774
之前的	-8775
信息的	-8776
其它的	-8777
出现的	-8778
的历史	-8779
的未来	-8780
atin	-8781
hyth	-8782
uary	-8783
uits	-8784
不是一个	-8785
非常感谢	-8786
etics	-8787
▁reci	-8788
我们的生活	-8789
urance	-8790
▁sight	-8791
ulating	-8792
▁iPhone	-8793
▁liquid	-8794
▁severe	-8795
▁forests	-8796
▁however	-8797
▁reprodu	-8798
▁同	-8799
与人	-8800
周期	-8801
命运	-8802
大楼	-8803
忘了	-8804
放进	-8805
模糊	-8806
活着	-8807
灵活	-8808
炸弹	-8809
生理	-8810
网页	-8811
edy	-8812
ete	-8813
▁Co	-8814
▁解决	-8815
▁都在	-8816
不断的	-8817
本质上	-8818
漂亮的	-8819
独特的	-8820
的作品	-8821
第三个	-8822
itan	-8823
otic	-8824
▁sla	-8825
▁它是一个	-8826
▁所以我想	-8827
▁这是我的	-8828
porary	-8829
▁kitch	-8830
▁pitch	-8831
▁shoot	-8832
▁smile	-8833
▁steel	-8834
▁buying	-8835
▁desire	-8836
▁former	-8837
▁spring	-8838
▁convince	-8839
▁election	-8840
▁pleasure	-8841
▁dinosaurs	-8842
▁situations	-8843
3.	-8844
Do	-8845
▁罗	-8846
传达	-8847
共和	-8848
含义	-8849
理工	-8850
申请	-8851
自豪	-8852
要去	-8853
车的	-8854
转向	-8855
雨林	-8856
非凡	-8857
鲸鱼	-8858
bre	-8859
uff	-8860
▁Qu	-8861
▁导致	-8862
▁进入	-8863
因为它	-8864
大脑中	-8865
委员会	-8866
宇宙中	-8867
是这个	-8868
onym	-8869
▁Mil	-8870
▁bee	-8871
▁cha	-8872
▁rom	-8873
▁我需要	-8874
还有一个	-8875
▁clip	-8876
▁这就是我	-8877
▁这张照片	-8878
▁clock	-8879
▁goals	-8880
▁sites	-8881
▁staff	-8882
▁aftern	-8883
▁compar	-8884
▁driver	-8885
▁winter	-8886
chnology	-8887
▁Pakistan	-8888
▁messages	-8889
▁invention	-8890
▁typically	-8891
▁discussion	-8892
▁foundation	-8893
za	-8894
▁中	-8895
▁据	-8896
一座	-8897
一部	-8898
上一	-8899
午餐	-8900
否则	-8901
坚信	-8902
学者	-8903
屠杀	-8904
心灵	-8905
拿出	-8906
水中	-8907
水的	-8908
波士	-8909
热带	-8910
特点	-8911
身处	-8912
部位	-8913
难民	-8914
餐厅	-8915
黄金	-8916
ola	-8917
sec	-8918
zed	-8919
▁Ac	-8920
▁我被	-8921
▁这么	-8922
▁那就	-8923
世界中	-8924
事物的	-8925
克里斯	-8926
地区的	-8927
完整的	-8928
小部分	-8929
房间里	-8930
把自己	-8931
有许多	-8932
离开了	-8933
非常好	-8934
mers	-8935
▁spo	-8936
▁有一天	-8937
我们发现	-8938
eline	-8939
▁Alex	-8940
▁Mont	-8941
▁cere	-8942
▁inev	-8943
▁runs	-8944
▁unus	-8945
▁如果你想	-8946
▁我意识到	-8947
▁coral	-8948
▁input	-8949
▁neuro	-8950
▁ought	-8951
▁tumor	-8952
▁waves	-8953
▁bottle	-8954
▁factor	-8955
▁Charles	-8956
▁actions	-8957
▁applied	-8958
▁lessons	-8959
▁privile	-8960
▁released	-8961
▁generally	-8962
▁practical	-8963
▁worldwide	-8964
▁convention	-8965
▁destruction	-8966
65	-8967
三种	-8968
乐队	-8969
了的	-8970
以外	-8971
冰川	-8972
北部	-8973
单独	-8974
反复	-8975
多年	-8976
家的	-8977
强迫	-8978
恰恰	-8979
扩张	-8980
方便	-8981
气球	-8982
河流	-8983
游泳	-8984
生日	-8985
界面	-8986
监控	-8987
至关	-8988
讲话	-8989
货币	-8990
过滤	-8991
采集	-8992
bed	-8993
iel	-8994
rat	-8995
van	-8996
▁找到	-8997
▁曾经	-8998
先生们	-8999
刚开始	-9000
古老的	-9001
对这个	-9002
讲故事	-9003
▁Yet	-9004
▁bow	-9005
▁que	-9006
▁他们有	-9007
▁而这个	-9008
anish	-9009
enced	-9010
▁ring	-9011
▁不仅仅是	-9012
rument	-9013
▁auton	-9014
▁honor	-9015
▁blocks	-9016
▁ingred	-9017
▁organs	-9018
▁senses	-9019
▁depends	-9020
▁details	-9021
▁illegal	-9022
▁viruses	-9023
▁consumer	-9024
▁hydrogen	-9025
▁symptoms	-9026
▁definitely	-9027
▁instrument	-9028
▁protection	-9029
▁technological	-9030
▁二	-9031
▁因	-9032
▁问	-9033
三角	-9034
乔治	-9035
付出	-9036
众多	-9037
干净	-9038
悲剧	-9039
拉丁	-9040
拉斯	-9041
没错	-9042
白人	-9043
▁在座	-9044
▁此外	-9045
他们就	-9046
制作的	-9047
可以用	-9048
我们想	-9049
星球上	-9050
波士顿	-9051
的主题	-9052
的基础	-9053
给我的	-9054
让大家	-9055
高尔夫	-9056
anny	-9057
elly	-9058
ingu	-9059
omas	-9060
aters	-9061
▁1960	-9062
▁1980	-9063
▁Ange	-9064
▁biom	-9065
▁impl	-9066
▁resc	-9067
▁suit	-9068
▁thin	-9069
▁我们没有	-9070
friend	-9071
▁Could	-9072
▁skill	-9073
▁formed	-9074
▁gender	-9075
▁remain	-9076
▁sphere	-9077
▁consist	-9078
▁gravity	-9079
▁promise	-9080
▁abstract	-9081
▁prepared	-9082
▁afternoon	-9083
▁increased	-9084
▁naturally	-9085
▁newspaper	-9086
▁inequality	-9087
▁vulnerable	-9088
▁photographs	-9089
▁光	-9090
三年	-9091
圣经	-9092
她说	-9093
对你	-9094
序列	-9095
成分	-9096
战斗	-9097
日子	-9098
是被	-9099
欺骗	-9100
燃烧	-9101
的光	-9102
相连	-9103
耳朵	-9104
说了	-9105
顺利	-9106
魅力	-9107
/11	-9108
▁感谢	-9109
▁那种	-9110
▁都有	-9111
不会有	-9112
倾向于	-9113
创造的	-9114
志愿者	-9115
想象的	-9116
我喜欢	-9117
找到的	-9118
时代的	-9119
的一面	-9120
着我们	-9121
遇到了	-9122
Look	-9123
iano	-9124
▁600	-9125
▁Atl	-9126
▁GPS	-9127
▁但如果	-9128
▁因此我	-9129
▁我看到	-9130
创造一个	-9131
icing	-9132
point	-9133
▁每个人都	-9134
father	-9135
olving	-9136
▁added	-9137
▁keeps	-9138
mission	-9139
▁pulled	-9140
▁Nigeria	-9141
▁opinion	-9142
▁radical	-9143
▁internal	-9144
▁mechanism	-9145
▁perception	-9146
▁potentially	-9147
▁environments	-9148
26	-9149
BM	-9150
乐趣	-9151
保障	-9152
加拉	-9153
团结	-9154
大象	-9155
天的	-9156
就被	-9157
成熟	-9158
时报	-9159
深深	-9160
病的	-9161
目睹	-9162
经营	-9163
编程	-9164
美妙	-9165
英文	-9166
视为	-9167
词汇	-9168
课堂	-9169
集团	-9170
der	-9171
▁KB	-9172
▁在此	-9173
▁尝试	-9174
▁都会	-9175
和他们	-9176
和他的	-9177
和你们	-9178
科学的	-9179
类似于	-9180
over	-9181
umps	-9182
▁dat	-9183
▁dip	-9184
▁eld	-9185
▁以至于	-9186
不可能的	-9187
大家分享	-9188
ework	-9189
▁你们知道	-9190
▁你可能会	-9191
▁estim	-9192
▁option	-9193
▁Harvard	-9194
▁channel	-9195
▁empathy	-9196
▁encoura	-9197
▁exchange	-9198
▁wireless	-9199
▁framework	-9200
▁hospitals	-9201
▁interests	-9202
▁literature	-9203
▁processing	-9204
▁profession	-9205
▁十	-9206
▁若	-9207
万个	-9208
以上	-9209
信心	-9210
区的	-9211
地震	-9212
大会	-9213
戏剧	-9214
推特	-9215
生涯	-9216
组装	-9217
自主	-9218
街头	-9219
见了	-9220
走路	-9221
越多	-9222
量子	-9223
阿尔	-9224
▁Gh	-9225
▁地球	-9226
▁有关	-9227
▁这时	-9228
会怎样	-9229
太棒了	-9230
把我们	-9231
普通的	-9232
的系统	-9233
▁Bro	-9234
▁rig	-9235
三分之一	-9236
只有一个	-9237
实际上是	-9238
我们开始	-9239
改变世界	-9240
毫无疑问	-9241
▁hits	-9242
▁Other	-9243
▁goods	-9244
▁theme	-9245
▁Valley	-9246
▁sample	-9247
▁season	-9248
▁amounts	-9249
▁factors	-9250
▁funding	-9251
▁privacy	-9252
▁reached	-9253
▁existing	-9254
▁recorded	-9255
▁Wikipedia	-9256
▁sophisticated	-9257
两倍	-9258
使你	-9259
克林	-9260
利润	-9261
外交	-9262
大了	-9263
威尔	-9264
学科	-9265
安静	-9266
康复	-9267
我得	-9268
我被	-9269
折叠	-9270
源于	-9271
玩意	-9272
类型	-9273
脑袋	-9274
赚钱	-9275
边界	-9276
钢琴	-9277
页面	-9278
▁一起	-9279
▁我所	-9280
优秀的	-9281
全球化	-9282
创造出	-9283
前所未	-9284
印度的	-9285
学到的	-9286
的那个	-9287
科技的	-9288
▁Bab	-9289
▁Jul	-9290
▁Mon	-9291
▁anx	-9292
▁mak	-9293
▁有一些	-9294
他们自己	-9295
还有很多	-9296
amics	-9297
▁mira	-9298
▁nose	-9299
▁sees	-9300
会发生什么	-9301
是什么样的	-9302
ternal	-9303
▁cyber	-9304
▁hyper	-9305
▁satis	-9306
▁acting	-9307
▁assign	-9308
▁accompl	-9309
▁feature	-9310
▁include	-9311
▁kitchen	-9312
▁antibiot	-9313
▁mistakes	-9314
▁vehicles	-9315
▁awareness	-9316
▁fundamentally	-9317
GO	-9318
▁奥	-9319
久的	-9320
令我	-9321
们的	-9322
体制	-9323
分散	-9324
利福	-9325
回忆	-9326
多种	-9327
悲伤	-9328
感应	-9329
oly	-9330
▁生命	-9331
准备好	-9332
存在着	-9333
学到了	-9334
美元的	-9335
说什么	-9336
这是我	-9337
cend	-9338
pher	-9339
▁ens	-9340
▁ped	-9341
▁是关于	-9342
▁要知道	-9343
▁这个是	-9344
一个非常	-9345
伊斯兰教	-9346
akers	-9347
ended	-9348
orous	-9349
▁cure	-9350
▁glam	-9351
▁shad	-9352
▁dedic	-9353
▁notes	-9354
▁puzzle	-9355
▁mosquit	-9356
▁regions	-9357
▁tonight	-9358
▁rational	-9359
▁stronger	-9360
▁traveling	-9361
▁activities	-9362
▁participate	-9363
▁collaboration	-9364
MS	-9365
Sh	-9366
▁打	-9367
一想	-9368
事故	-9369
关闭	-9370
哈佛	-9371
姐妹	-9372
心里	-9373
惊人	-9374
抗议	-9375
板上	-9376
渐渐	-9377
灯泡	-9378
花在	-9379
莱坞	-9380
让他	-9381
质疑	-9382
部队	-9383
den	-9384
▁似乎	-9385
▁有点	-9386
▁试图	-9387
中的一	-9388
实现的	-9389
屏幕上	-9390
的人的	-9391
精神病	-9392
绿色的	-9393
聪明的	-9394
ifth	-9395
keys	-9396
rows	-9397
▁Dep	-9398
▁你不能	-9399
▁我必须	-9400
▁我非常	-9401
▁这只是	-9402
因为他们	-9403
建立一个	-9404
erved	-9405
oston	-9406
vable	-9407
▁bicy	-9408
▁diag	-9409
▁horm	-9410
▁pair	-9411
▁plus	-9412
▁reef	-9413
▁surf	-9414
arrass	-9415
▁beach	-9416
▁upper	-9417
▁Russia	-9418
▁driven	-9419
▁Perhaps	-9420
▁circuit	-9421
▁suppose	-9422
▁interpret	-9423
▁efficiency	-9424
▁叫	-9425
▁本	-9426
一本	-9427
储存	-9428
向前	-9429
天气	-9430
始终	-9431
成绩	-9432
权威	-9433
毁灭	-9434
气味	-9435
消除	-9436
理性	-9437
统一	-9438
缺陷	-9439
脂肪	-9440
这两	-9441
can	-9442
iat	-9443
spe	-9444
xim	-9445
▁一般	-9446
▁在你	-9447
▁得到	-9448
世界里	-9449
亚马逊	-9450
你不能	-9451
它可以	-9452
张照片	-9453
我需要	-9454
的区域	-9455
的女性	-9456
糟糕的	-9457
自身的	-9458
bors	-9459
cred	-9460
▁adj	-9461
其他地方	-9462
我们认为	-9463
usive	-9464
▁Come	-9465
▁Four	-9466
▁eggs	-9467
▁3,000	-9468
▁Women	-9469
▁atoms	-9470
▁false	-9471
▁frank	-9472
▁ridic	-9473
▁teams	-9474
▁Nobody	-9475
▁clever	-9476
▁regard	-9477
▁chicken	-9478
▁falling	-9479
▁singing	-9480
▁unusual	-9481
▁infected	-9482
▁printing	-9483
▁protected	-9484
▁personally	-9485
。(	-9486
上下	-9487
下午	-9488
不行	-9489
举手	-9490
体育	-9491
假如	-9492
做个	-9493
台上	-9494
开了	-9495
批评	-9496
最佳	-9497
有过	-9498
构成	-9499
栖息	-9500
正好	-9501
讽刺	-9502
设立	-9503
野生	-9504
omo	-9505
rey	-9506
▁关键	-9507
▁决定	-9508
▁政治	-9509
▁相信	-9510
不确定	-9511
不错的	-9512
个孩子	-9513
中心的	-9514
困难的	-9515
是多么	-9516
的不同	-9517
Okay	-9518
olic	-9519
well	-9520
▁Ber	-9521
▁Los	-9522
▁Pac	-9523
▁他们也	-9524
永远不会	-9525
isher	-9526
▁Also	-9527
▁lect	-9528
▁milk	-9529
▁wine	-9530
▁不幸的是	-9531
▁domin	-9532
▁refer	-9533
▁signs	-9534
▁topic	-9535
▁Health	-9536
▁assist	-9537
▁contem	-9538
▁hoping	-9539
▁mirror	-9540
▁scared	-9541
cription	-9542
▁advance	-9543
▁discipl	-9544
▁mistake	-9545
▁operate	-9546
▁remains	-9547
▁accurate	-9548
▁ancestors	-9549
▁computing	-9550
▁embarrass	-9551
▁innovative	-9552
)。	-9553
CA	-9554
gl	-9555
▁受	-9556
一代	-9557
不止	-9558
为人	-9559
做成	-9560
写了	-9561
分类	-9562
剩下	-9563
句子	-9564
可行	-9565
哈拉	-9566
干预	-9567
敌人	-9568
满了	-9569
电路	-9570
竟然	-9571
美分	-9572
规定	-9573
重量	-9574
随时	-9575
非法	-9576
197	-9577
ora	-9578
▁如此	-9579
▁我来	-9580
▁有个	-9581
▁生物	-9582
▁要么	-9583
创新的	-9584
到一起	-9585
剩下的	-9586
微小的	-9587
我们把	-9588
抗生素	-9589
的事件	-9590
的形式	-9591
的方向	-9592
篇文章	-9593
whel	-9594
▁nav	-9595
▁它们的	-9596
▁而现在	-9597
任何东西	-9598
任何地方	-9599
我们没有	-9600
的过程中	-9601
▁Part	-9602
▁fert	-9603
▁silk	-9604
▁那么我们	-9605
athers	-9606
illing	-9607
▁coord	-9608
▁grain	-9609
eration	-9610
▁Boston	-9611
▁cortex	-9612
▁deploy	-9613
▁garden	-9614
▁rocket	-9615
▁studio	-9616
▁survey	-9617
▁thanks	-9618
▁empower	-9619
▁evening	-9620
▁birthday	-9621
▁proteins	-9622
▁relevant	-9623
▁transfer	-9624
▁ultimate	-9625
▁authority	-9626
▁mountains	-9627
▁conversations	-9628
▁transportation	-9629
BC	-9630
My	-9631
▁主	-9632
▁卡	-9633
两次	-9634
共有	-9635
意料	-9636
数码	-9637
有限	-9638
的几	-9639
神话	-9640
纪念	-9641
绝望	-9642
聊天	-9643
荷兰	-9644
负担	-9645
重的	-9646
阻碍	-9647
▁城市	-9648
▁掌声	-9649
▁网络	-9650
▁这在	-9651
万年前	-9652
他人的	-9653
出来了	-9654
年之后	-9655
很可能	-9656
想一下	-9657
想象力	-9658
珊瑚礁	-9659
的名字	-9660
神奇的	-9661
让自己	-9662
选择的	-9663
领域的	-9664
onds	-9665
ront	-9666
▁Jan	-9667
▁Jer	-9668
▁Rev	-9669
▁sen	-9670
alled	-9671
clear	-9672
gment	-9673
itors	-9674
▁Mark	-9675
▁bare	-9676
▁bath	-9677
▁diss	-9678
▁hunt	-9679
▁item	-9680
▁mile	-9681
▁但如果你	-9682
▁这是因为	-9683
owered	-9684
source	-9685
▁frame	-9686
▁horiz	-9687
▁tests	-9688
inction	-9689
▁France	-9690
▁critic	-9691
▁fabric	-9692
▁joined	-9693
▁poetry	-9694
▁worlds	-9695
▁diction	-9696
▁dropped	-9697
▁extinct	-9698
▁largely	-9699
▁occurred	-9700
▁organism	-9701
▁pollution	-9702
▁resistance	-9703
▁challenging	-9704
7.	-9705
Be	-9706
ET	-9707
uh	-9708
也就	-9709
人性	-9710
作业	-9711
作物	-9712
使命	-9713
偶然	-9714
势力	-9715
区分	-9716
即兴	-9717
去过	-9718
变异	-9719
可爱	-9720
喜剧	-9721
困境	-9722
土耳	-9723
增强	-9724
尺寸	-9725
底部	-9726
立即	-9727
绘画	-9728
花园	-9729
融入	-9730
论者	-9731
访问	-9732
财政	-9733
跳舞	-9734
车祸	-9735
追溯	-9736
部长	-9737
雇佣	-9738
▁23	-9739
▁用于	-9740
▁随后	-9741
▁音乐	-9742
中国的	-9743
做这些	-9744
土耳其	-9745
展示的	-9746
指的是	-9747
明白了	-9748
根本上	-9749
比如说	-9750
用这个	-9751
的建筑	-9752
的运动	-9753
跟你们	-9754
anta	-9755
foot	-9756
▁Air	-9757
▁Law	-9758
▁Pol	-9759
▁asp	-9760
▁san	-9761
▁但现在	-9762
心理学家	-9763
最后一个	-9764
▁capt	-9765
▁decl	-9766
▁diam	-9767
▁elev	-9768
▁joke	-9769
▁pump	-9770
▁subs	-9771
▁因为它们	-9772
是什么样子	-9773
ateful	-9774
▁5,000	-9775
▁absor	-9776
▁Thomas	-9777
▁boring	-9778
▁drives	-9779
inations	-9780
▁burning	-9781
▁defined	-9782
▁intense	-9783
▁options	-9784
▁quarter	-9785
▁sensors	-9786
▁visible	-9787
▁apparent	-9788
▁constant	-9789
▁overwhel	-9790
▁sunlight	-9791
▁tracking	-9792
▁neighbors	-9793
▁percentage	-9794
▁productive	-9795
MA	-9796
众笑	-9797
伯特	-9798
你看	-9799
克服	-9800
公寓	-9801
公路	-9802
分辨	-9803
又是	-9804
告知	-9805
四处	-9806
在此	-9807
在线	-9808
失明	-9809
引用	-9810
整整	-9811
机遇	-9812
爱情	-9813
的手	-9814
的钱	-9815
维基	-9816
膨胀	-9817
舒适	-9818
跟你	-9819
跟着	-9820
过于	-9821
通讯	-9822
降落	-9823
ota	-9824
▁Ma	-9825
▁一天	-9826
▁也有	-9827
▁了解	-9828
▁新的	-9829
同情心	-9830
向大家	-9831
干什么	-9832
找不到	-9833
的一天	-9834
的结构	-9835
红色的	-9836
▁Che	-9837
▁Unf	-9838
▁但是它	-9839
我们正在	-9840
越来越多	-9841
being	-9842
gging	-9843
night	-9844
scale	-9845
▁Five	-9846
▁Stan	-9847
▁cast	-9848
▁hung	-9849
▁load	-9850
▁myst	-9851
世界各地的	-9852
making	-9853
▁doubt	-9854
▁recom	-9855
▁thick	-9856
▁closely	-9857
▁clothes	-9858
▁confront	-9859
▁dramatic	-9860
▁functions	-9861
▁meaningful	-9862
▁applications	-9863
▁circumstances	-9864
ih	-9865
▁于	-9866
▁发	-9867
▁直	-9868
。」	-9869
一千	-9870
之类	-9871
也没	-9872
乡村	-9873
反射	-9874
多久	-9875
天堂	-9876
完善	-9877
幻觉	-9878
幽默	-9879
广播	-9880
所说	-9881
接收	-9882
概率	-9883
洞穴	-9884
祖父	-9885
算是	-9886
结尾	-9887
计的	-9888
道的	-9889
酒店	-9890
面部	-9891
首次	-9892
mit	-9893
que	-9894
uce	-9895
ula	-9896
ums	-9897
▁Sa	-9898
▁他会	-9899
▁想要	-9900
▁看着	-9901
使用了	-9902
参与到	-9903
太阳系	-9904
影响力	-9905
最重要	-9906
起来的	-9907
那时候	-9908
asks	-9909
lock	-9910
tech	-9911
▁250	-9912
▁CEO	-9913
▁几年前	-9914
找到一个	-9915
科学家们	-9916
▁busy	-9917
▁limb	-9918
▁murd	-9919
▁remo	-9920
▁sets	-9921
▁zoom	-9922
asters	-9923
▁polar	-9924
▁prime	-9925
解决这个问题	-9926
▁ladies	-9927
▁combine	-9928
▁command	-9929
▁comment	-9930
▁cooking	-9931
▁figures	-9932
▁outcome	-9933
▁unknown	-9934
▁vessels	-9935
▁witness	-9936
▁combined	-9937
▁somewhat	-9938
▁implement	-9939
▁technique	-9940
▁conclusion	-9941
▁Unfortunately	-9942
▁sustainability	-9943
▁。	-9944
▁六	-9945
▁噢	-9946
▁起	-9947
与众	-9948
今晚	-9949
困扰	-9950
在他	-9951
好好	-9952
孤独	-9953
实时	-9954
巧克	-9955
度过	-9956
我都	-9957
排列	-9958
放入	-9959
月份	-9960
残疾	-9961
独特	-9962
环绕	-9963
瑞士	-9964
的开	-9965
眼前	-9966
确认	-9967
解答	-9968
迈克	-9969
鼓舞	-9970
GDP	-9971
ams	-9972
▁ru	-9973
▁故事	-9974
▁没人	-9975
▁英国	-9976
庞大的	-9977
形成了	-9978
拍摄的	-9979
现有的	-9980
的作用	-9981
的反应	-9982
的同时	-9983
的大小	-9984
自然界	-9985
蓝色的	-9986
crim	-9987
oons	-9988
▁Mal	-9989
▁Med	-9990
▁就像是	-9991
▁顺便说	-9992
allel	-9993
icago	-9994
▁chip	-9995
▁fake	-9996
▁ment	-9997
▁scar	-9998
▁wars	-9999
▁zone	-10000
▁在我们的	-10001
▁我是一个	-10002
angers	-10003
▁James	-10004
▁songs	-10005
▁但是如果你	-10006
▁church	-10007
▁flower	-10008
▁patent	-10009
▁solved	-10010
▁Science	-10011
▁attacks	-10012
▁electro	-10013
▁equally	-10014
▁frankly	-10015
▁overall	-10016
▁memories	-10017
▁explained	-10018
▁providing	-10019
▁selection	-10020
▁appreciate	-10021
▁economists	-10022
▁presentation	-10023
▁·	-10024
▁且	-10025
人心	-10026
人数	-10027
传输	-10028
公交	-10029
加哥	-10030
十五	-10031
存储	-10032
形容	-10033
怀孕	-10034
我来	-10035
捐赠	-10036
提议	-10037
桌子	-10038
玉米	-10039
糖尿	-10040
自信	-10041
错的	-10042
cal	-10043
ias	-10044
ras	-10045
▁Ke	-10046
▁带着	-10047
代表着	-10048
以一种	-10049
可以被	-10050
有意义	-10051
芝加哥	-10052
陌生人	-10053
ctic	-10054
imer	-10055
xide	-10056
▁195	-10057
▁不仅仅	-10058
▁很明显	-10059
利福尼亚	-10060
可以通过	-10061
给我们的	-10062
sters	-10063
▁cave	-10064
▁cock	-10065
▁disg	-10066
▁lens	-10067
▁vert	-10068
难以置信的	-10069
非常重要的	-10070
herent	-10071
▁Found	-10072
▁Obama	-10073
▁admit	-10074
▁bones	-10075
▁fixed	-10076
▁initi	-10077
▁plate	-10078
▁prize	-10079
▁stone	-10080
▁advice	-10081
▁fright	-10082
▁monkey	-10083
▁refuge	-10084
▁tested	-10085
▁whales	-10086
▁Chicago	-10087
▁fingers	-10088
▁flowers	-10089
▁records	-10090
▁solving	-10091
▁therapy	-10092
ologically	-10093
▁collected	-10094
▁narrative	-10095
▁psychology	-10096
▁appropriate	-10097
uk	-10098
争取	-10099
协作	-10100
啤酒	-10101
失望	-10102
它就	-10103
帝国	-10104
帮忙	-10105
抱怨	-10106
收益	-10107
收获	-10108
监视	-10109
碰到	-10110
色彩	-10111
视力	-10112
评价	-10113
足以	-10114
tes	-10115
vey	-10116
一定会	-10117
专注于	-10118
众人笑	-10119
又一次	-10120
回到了	-10121
对他们	-10122
形式的	-10123
数学家	-10124
这也是	-10125
领导人	-10126
Yeah	-10127
hour	-10128
▁Jim	-10129
▁pin	-10130
▁在过去	-10131
▁就这样	-10132
▁我不会	-10133
▁而且我	-10134
一个例子	-10135
世界上的	-10136
earch	-10137
▁Next	-10138
▁flew	-10139
▁nurs	-10140
▁orch	-10141
▁outc	-10142
▁error	-10143
▁label	-10144
▁memor	-10145
▁resil	-10146
▁roads	-10147
▁Please	-10148
▁button	-10149
▁relate	-10150
▁remove	-10151
▁nowhere	-10152
▁quantum	-10153
▁terrorism	-10154
▁mechanical	-10155
▁passionate	-10156
▁grandfather	-10157
▁则	-10158
▁埃	-10159
▁手	-10160
一套	-10161
司机	-10162
哥伦	-10163
大卫	-10164
宝宝	-10165
家乡	-10166
家族	-10167
年中	-10168
挣扎	-10169
牙齿	-10170
留在	-10171
疼痛	-10172
航天	-10173
许可	-10174
这座	-10175
遍布	-10176
遵循	-10177
anz	-10178
▁Em	-10179
▁Fe	-10180
▁py	-10181
▁你将	-10182
▁即便	-10183
▁国家	-10184
▁的确	-10185
了下来	-10186
减少了	-10187
可不是	-10188
可行的	-10189
和我的	-10190
已经有	-10191
的土地	-10192
的组织	-10193
给了我	-10194
illy	-10195
look	-10196
▁Sam	-10197
▁然后在	-10198
哺乳动物	-10199
来到这里	-10200
的人来说	-10201
esome	-10202
▁1970	-10203
▁Talk	-10204
▁club	-10205
▁gras	-10206
▁obst	-10207
▁vibr	-10208
▁与此同时	-10209
Americ	-10210
estyle	-10211
▁While	-10212
▁films	-10213
▁plans	-10214
▁renew	-10215
▁split	-10216
▁trend	-10217
▁uncom	-10218
▁assume	-10219
▁astero	-10220
▁deaths	-10221
▁struck	-10222
▁Project	-10223
▁chimpan	-10224
▁instrum	-10225
▁monkeys	-10226
▁pushing	-10227
▁collapse	-10228
▁creature	-10229
▁horrible	-10230
▁presence	-10231
▁Christmas	-10232
▁determine	-10233
▁marketing	-10234
▁sensitive	-10235
▁spiritual	-10236
▁microscope	-10237
▁surrounded	-10238
▁psychological	-10239
27	-10240
▁拿	-10241
了它	-10242
仿佛	-10243
几千	-10244
劳动	-10245
变为	-10246
在想	-10247
字体	-10248
很不	-10249
扩散	-10250
有用	-10251
版权	-10252
祈祷	-10253
缩小	-10254
群岛	-10255
荣幸	-10256
详细	-10257
走上	-10258
运营	-10259
遗憾	-10260
▁怎样	-10261
在印度	-10262
我们用	-10263
探测器	-10264
病毒的	-10265
的生命	-10266
英里的	-10267
5000	-10268
aser	-10269
cers	-10270
▁Day	-10271
▁wel	-10272
一种新的	-10273
什么东西	-10274
有多少人	-10275
的重要性	-10276
这些信息	-10277
iters	-10278
stand	-10279
▁migr	-10280
▁但是如果	-10281
ounced	-10282
stream	-10283
▁hotel	-10284
▁multi	-10285
▁navig	-10286
▁phase	-10287
▁taste	-10288
▁clouds	-10289
▁handle	-10290
▁string	-10291
aneously	-10292
▁careful	-10293
▁fiction	-10294
▁harvest	-10295
▁housing	-10296
▁administ	-10297
▁director	-10298
▁features	-10299
▁pregnant	-10300
▁subjects	-10301
▁electronic	-10302
▁greenhouse	-10303
▁physically	-10304
▁explanation	-10305
▁inspiration	-10306
ka	-10307
ua	-10308
从而	-10309
何时	-10310
借助	-10311
共振	-10312
写着	-10313
凌晨	-10314
前往	-10315
南部	-10316
卡车	-10317
原型	-10318
天才	-10319
太平	-10320
好玩	-10321
抵抗	-10322
振奋	-10323
月球	-10324
本地	-10325
沉默	-10326
法官	-10327
演出	-10328
男子	-10329
行了	-10330
顾客	-10331
bal	-10332
nda	-10333
▁宇宙	-10334
▁科技	-10335
▁而你	-10336
危险的	-10337
心理学	-10338
我还是	-10339
显而易	-10340
更容易	-10341
研究所	-10342
系统中	-10343
结束了	-10344
运作的	-10345
这些小	-10346
适用于	-10347
tail	-10348
▁那时候	-10349
一个新的	-10350
经济增长	-10351
acing	-10352
▁这个问题	-10353
arency	-10354
isters	-10355
▁Democ	-10356
▁Latin	-10357
▁dress	-10358
▁stret	-10359
▁unexp	-10360
ptember	-10361
▁agreed	-10362
▁laptop	-10363
▁papers	-10364
▁proced	-10365
▁sports	-10366
▁aspects	-10367
▁reverse	-10368
▁surgeon	-10369
▁transpl	-10370
▁spreading	-10371
▁controlled	-10372
▁philosophy	-10373
▁布	-10374
▁老	-10375
一幅	-10376
一来	-10377
任意	-10378
你将	-10379
农村	-10380
创立	-10381
可见	-10382
喜爱	-10383
完了	-10384
平常	-10385
惩罚	-10386
我才	-10387
打击	-10388
是对	-10389
极为	-10390
用到	-10391
童年	-10392
管道	-10393
联盟	-10394
能让	-10395
解读	-10396
过度	-10397
集合	-10398
革新	-10399
But	-10400
alu	-10401
box	-10402
vis	-10403
▁Ah	-10404
▁以便	-10405
▁在他	-10406
▁数据	-10407
▁是我	-10408
▁这会	-10409
与我们	-10410
保护区	-10411
巧克力	-10412
想到的	-10413
意识的	-10414
染色体	-10415
的角色	-10416
贫民窟	-10417
3000	-10418
▁bes	-10419
▁mer	-10420
▁然后再	-10421
pring	-10422
▁Port	-10423
▁ears	-10424
▁grab	-10425
▁mere	-10426
▁pool	-10427
越来越多的	-10428
iosity	-10429
▁About	-10430
▁Antar	-10431
▁Count	-10432
▁Paris	-10433
▁bombs	-10434
▁crack	-10435
▁curve	-10436
▁datab	-10437
▁lying	-10438
▁Muslim	-10439
▁desper	-10440
▁diplom	-10441
▁divide	-10442
▁embedd	-10443
▁owners	-10444
▁perman	-10445
▁pollen	-10446
▁volume	-10447
▁Pacific	-10448
▁embrace	-10449
▁musical	-10450
▁violent	-10451
▁younger	-10452
connected	-10453
▁Republic	-10454
▁paradigm	-10455
▁villages	-10456
▁September	-10457
▁Something	-10458
▁statement	-10459
▁unexpected	-10460
EC	-10461
Is	-10462
一同	-10463
一把	-10464
乐器	-10465
公布	-10466
场所	-10467
外星	-10468
天花	-10469
开启	-10470
感激	-10471
摧毁	-10472
某人	-10473
注入	-10474
消灭	-10475
演化	-10476
爱好	-10477
真理	-10478
窗户	-10479
苏联	-10480
营销	-10481
要在	-10482
资产	-10483
黄色	-10484
鼻子	-10485
fin	-10486
ses	-10487
▁原因	-10488
▁好像	-10489
▁技术	-10490
▁相比	-10491
▁继续	-10492
▁这将	-10493
你们能	-10494
大小的	-10495
学会了	-10496
实在是	-10497
小时的	-10498
环境的	-10499
跟我说	-10500
长时间	-10501
音乐家	-10502
obal	-10503
omic	-10504
▁Lab	-10505
▁dot	-10506
▁这里的	-10507
恐怖分子	-10508
爱因斯坦	-10509
生活方式	-10510
▁1950	-10511
▁army	-10512
▁Apple	-10513
▁depth	-10514
▁flash	-10515
▁march	-10516
▁Robert	-10517
▁linked	-10518
▁savings	-10519
▁silence	-10520
▁instinct	-10521
▁wondered	-10522
▁centuries	-10523
▁measuring	-10524
▁religions	-10525
▁behavioral	-10526
▁automatically	-10527
▁女	-10528
例外	-10529
做点	-10530
化了	-10531
国内	-10532
媒介	-10533
尾巴	-10534
想说	-10535
显得	-10536
笑话	-10537
观测	-10538
读者	-10539
谈判	-10540
足球	-10541
这就	-10542
那位	-10543
▁不再	-10544
▁你得	-10545
▁制造	-10546
▁基于	-10547
▁它将	-10548
▁时间	-10549
▁是由	-10550
主要的	-10551
到这里	-10552
它们是	-10553
就没有	-10554
我发现	-10555
最后一	-10556
最喜欢	-10557
极大的	-10558
的实验	-10559
的科学	-10560
良好的	-10561
aint	-10562
▁10,	-10563
▁Spe	-10564
▁gut	-10565
▁mad	-10566
▁vag	-10567
▁我真的	-10568
▁所以他	-10569
▁所以当	-10570
你们可以	-10571
年的时间	-10572
很有意思	-10573
我们不能	-10574
的是一个	-10575
这种方式	-10576
iture	-10577
▁cosm	-10578
▁nest	-10579
▁trig	-10580
我们自己的	-10581
某种意义上	-10582
imeter	-10583
▁State	-10584
▁Union	-10585
▁boxes	-10586
▁expon	-10587
▁faced	-10588
▁knock	-10589
▁whale	-10590
▁arrest	-10591
▁border	-10592
▁reject	-10593
▁signed	-10594
▁spider	-10595
▁anticip	-10596
▁earthqu	-10597
▁Everyone	-10598
▁concrete	-10599
▁download	-10600
▁hypothes	-10601
▁outcomes	-10602
▁wherever	-10603
▁Basically	-10604
▁arguments	-10605
▁continued	-10606
▁laboratory	-10607
SD	-10608
▁哪	-10609
上网	-10610
下载	-10611
不通	-10612
为我	-10613
可乐	-10614
可靠	-10615
哈顿	-10616
图形	-10617
对了	-10618
年级	-10619
年间	-10620
抑制	-10621
抛弃	-10622
拥抱	-10623
按钮	-10624
文学	-10625
标题	-10626
歧视	-10627
的说	-10628
监管	-10629
眼镜	-10630
等于	-10631
维护	-10632
罗马	-10633
萨斯	-10634
调节	-10635
邪恶	-10636
随之	-10637
验证	-10638
800	-10639
rem	-10640
uum	-10641
▁今年	-10642
▁自从	-10643
乳腺癌	-10644
免费的	-10645
就是在	-10646
摄影师	-10647
物理学	-10648
的使用	-10649
的状态	-10650
的病人	-10651
确实是	-10652
hips	-10653
ille	-10654
▁Mic	-10655
▁Nat	-10656
▁tea	-10657
▁也不是	-10658
▁甚至是	-10659
你知道吗	-10660
幸运的是	-10661
有趣的是	-10662
没有一个	-10663
hythm	-10664
itual	-10665
lines	-10666
uting	-10667
▁Jack	-10668
▁dign	-10669
▁furn	-10670
▁pace	-10671
▁poly	-10672
▁wash	-10673
▁举个例子	-10674
▁有趣的是	-10675
profit	-10676
▁Mount	-10677
▁Never	-10678
▁aging	-10679
▁angry	-10680
▁cents	-10681
▁pharm	-10682
▁scary	-10683
▁stere	-10684
▁title	-10685
▁Museum	-10686
▁attend	-10687
▁evolve	-10688
▁extent	-10689
▁inject	-10690
▁phrase	-10691
▁worker	-10692
etically	-10693
▁breathe	-10694
▁corresp	-10695
▁library	-10696
▁proport	-10697
▁allowing	-10698
▁criminal	-10699
▁measured	-10700
▁provided	-10701
▁constrain	-10702
▁operation	-10703
▁mathematic	-10704
▁exploration	-10705
▁represented	-10706
▁transformed	-10707
▁时	-10708
一看	-10709
主动	-10710
代替	-10711
代谢	-10712
共鸣	-10713
双手	-10714
多元	-10715
审视	-10716
情景	-10717
惊叹	-10718
我又	-10719
折磨	-10720
撞击	-10721
操纵	-10722
支撑	-10723
欲望	-10724
激活	-10725
独裁	-10726
生成	-10727
的不	-10728
的心	-10729
福利	-10730
线的	-10731
缓慢	-10732
脱离	-10733
苍蝇	-10734
蚊帐	-10735
认可	-10736
轻松	-10737
顶端	-10738
And	-10739
▁平均	-10740
▁这条	-10741
下一代	-10742
只是在	-10743
多少人	-10744
学校里	-10745
常见的	-10746
文化的	-10747
曼哈顿	-10748
的产品	-10749
的基因	-10750
的存在	-10751
的意思	-10752
的经历	-10753
的资源	-10754
纽约市	-10755
etch	-10756
gent	-10757
lymp	-10758
uild	-10759
▁Fre	-10760
▁Sec	-10761
▁gon	-10762
▁tab	-10763
▁tap	-10764
▁一个是	-10765
并不知道	-10766
是什么呢	-10767
绝大多数	-10768
这样的人	-10769
▁Bush	-10770
▁bike	-10771
▁lets	-10772
▁mush	-10773
▁tack	-10774
▁因为这些	-10775
▁explo	-10776
▁humor	-10777
▁Island	-10778
▁limits	-10779
▁stands	-10780
▁storyt	-10781
▁toilet	-10782
▁causing	-10783
▁finance	-10784
▁contrast	-10785
▁distinct	-10786
▁maintain	-10787
▁identical	-10788
▁increases	-10789
▁reference	-10790
▁Revolution	-10791
▁department	-10792
▁controlling	-10793
23	-10794
29	-10795
4.	-10796
VD	-10797
dr	-10798
也要	-10799
以往	-10800
伦理	-10801
决心	-10802
出于	-10803
去到	-10804
后代	-10805
基地	-10806
实质	-10807
意图	-10808
抱歉	-10809
挖掘	-10810
损伤	-10811
放射	-10812
新鲜	-10813
无数	-10814
是吧	-10815
棒球	-10816
比喻	-10817
灯光	-10818
的头	-10819
的路	-10820
硬件	-10821
种种	-10822
线上	-10823
经典	-10824
翅膀	-10825
自杀	-10826
英寸	-10827
超市	-10828
轮椅	-10829
这份	-10830
队伍	-10831
ari	-10832
cel	-10833
hen	-10834
ups	-10835
▁告诉	-10836
▁未来	-10837
不存在	-10838
化合物	-10839
太平洋	-10840
数据库	-10841
比我们	-10842
的大脑	-10843
看不见	-10844
iled	-10845
oned	-10846
rors	-10847
▁ath	-10848
▁toy	-10849
▁他们不	-10850
▁他们把	-10851
▁百分之	-10852
你会发现	-10853
化学物质	-10854
实验室里	-10855
现在我们	-10856
看到这个	-10857
icide	-10858
▁Gold	-10859
▁Only	-10860
▁Wall	-10861
▁acts	-10862
▁clus	-10863
▁flag	-10864
▁lung	-10865
▁stri	-10866
生活在一个	-10867
笔记本电脑	-10868
▁piano	-10869
▁pyram	-10870
▁weigh	-10871
▁explos	-10872
▁interf	-10873
▁pocket	-10874
▁stayed	-10875
▁suffer	-10876
▁appears	-10877
▁carried	-10878
▁parking	-10879
▁concepts	-10880
▁domestic	-10881
▁illusion	-10882
▁instruct	-10883
▁obsessed	-10884
▁penguins	-10885
▁footprint	-10886
▁presented	-10887
▁prototype	-10888
▁translate	-10889
▁Foundation	-10890
▁directions	-10891
▁educational	-10892
▁entertainment	-10893
Tw	-10894
▁早	-10895
▁非	-10896
》,	-10897
一根	-10898
严格	-10899
产物	-10900
六个	-10901
出售	-10902
创伤	-10903
到来	-10904
勇敢	-10905
博拉	-10906
参观	-10907
口袋	-10908
向我	-10909
和他	-10910
多个	-10911
它能	-10912
富裕	-10913
居然	-10914
巴黎	-10915
干扰	-10916
幻想	-10917
成百	-10918
整理	-10919
方块	-10920
更快	-10921
清单	-10922
照明	-10923
猜测	-10924
看作	-10925
确切	-10926
见证	-10927
ala	-10928
oes	-10929
▁其次	-10930
▁根本	-10931
▁艺术	-10932
不是很	-10933
为他们	-10934
了一下	-10935
了所有	-10936
会这样	-10937
德里克	-10938
成功了	-10939
我不能	-10940
改变的	-10941
是一件	-10942
的能量	-10943
研究中	-10944
稳定的	-10945
经历过	-10946
amin	-10947
bage	-10948
hatt	-10949
rets	-10950
▁Cop	-10951
▁Net	-10952
▁ben	-10953
▁他们就	-10954
▁我不想	-10955
▁第一次	-10956
▁这里有	-10957
你们知道	-10958
像这样的	-10959
发生什么	-10960
恐怖主义	-10961
是一样的	-10962
电子游戏	-10963
arant	-10964
▁Mary	-10965
▁barr	-10966
▁tent	-10967
完全不同的	-10968
hattan	-10969
▁guide	-10970
▁plays	-10971
▁score	-10972
▁Before	-10973
▁colony	-10974
▁enable	-10975
▁immune	-10976
▁slides	-10977
▁collaps	-10978
▁decline	-10979
▁designs	-10980
▁robotic	-10981
▁samples	-10982
▁disorder	-10983
▁embedded	-10984
▁occasion	-10985
▁stations	-10986
▁Manhattan	-10987
▁disorders	-10988
▁economies	-10989
▁application	-10990
▁dramatically	-10991
休息	-10992
依旧	-10993
刚果	-10994
占据	-10995
发育	-10996
同步	-10997
向你	-10998
含有	-10999
困惑	-11000
外界	-11001
尴尬	-11002
尼斯	-11003
年内	-11004
引入	-11005
教徒	-11006
数千	-11007
数目	-11008
无比	-11009
旧的	-11010
是要	-11011
档案	-11012
歌曲	-11013
深度	-11014
物的	-11015
碎片	-11016
诗人	-11017
诚实	-11018
青春	-11019
nel	-11020
▁否则	-11021
▁对吧	-11022
▁并在	-11023
▁我又	-11024
决定了	-11025
发生过	-11026
受欢迎	-11027
工作者	-11028
我必须	-11029
我正在	-11030
明显的	-11031
的一半	-11032
的意义	-11033
能做到	-11034
遇到的	-11035
aret	-11036
ener	-11037
ogue	-11038
otes	-11039
▁Cap	-11040
▁Eas	-11041
▁Haw	-11042
▁Pan	-11043
▁Pat	-11044
▁ack	-11045
▁bat	-11046
纽约时报	-11047
资本主义	-11048
belie	-11049
eters	-11050
icted	-11051
ounce	-11052
▁Gulf	-11053
▁elim	-11054
▁gest	-11055
▁root	-11056
▁tube	-11057
▁我们甚至	-11058
向你们展示	-11059
▁Olymp	-11060
▁White	-11061
▁dozen	-11062
▁falls	-11063
▁tries	-11064
▁Number	-11065
▁ritual	-11066
▁traged	-11067
ollywood	-11068
▁Central	-11069
▁dancing	-11070
▁feeding	-11071
▁fishing	-11072
▁license	-11073
▁section	-11074
▁vaccine	-11075
▁Remember	-11076
▁academic	-11077
▁engaging	-11078
▁hardware	-11079
▁microbes	-11080
▁organize	-11081
▁celebrate	-11082
▁precisely	-11083
▁distributed	-11084
▁populations	-11085
▁recognition	-11086
尽量	-11087
岩石	-11088
微型	-11089
拍照	-11090
无知	-11091
昂贵	-11092
浪漫	-11093
清理	-11094
的海	-11095
看的	-11096
神圣	-11097
蔬菜	-11098
蚁群	-11099
视野	-11100
请求	-11101
身为	-11102
▁La	-11103
▁不用	-11104
▁产生	-11105
▁你是	-11106
▁它也	-11107
▁总是	-11108
▁接受	-11109
了一点	-11110
合适的	-11111
同时也	-11112
太多的	-11113
她们的	-11114
小时候	-11115
强烈的	-11116
我应该	-11117
撒哈拉	-11118
用这些	-11119
的目的	-11120
磁共振	-11121
谢谢你	-11122
case	-11123
iety	-11124
▁raw	-11125
▁我们得	-11126
▁这一点	-11127
一起工作	-11128
为什么不	-11129
帮助他们	-11130
很长时间	-11131
我自己的	-11132
的可能性	-11133
精神疾病	-11134
esity	-11135
flies	-11136
ingly	-11137
▁biod	-11138
▁icon	-11139
▁ther	-11140
▁因为这是	-11141
不可思议的	-11142
加利福尼亚	-11143
是一个非常	-11144
▁abuse	-11145
▁chose	-11146
▁honey	-11147
▁ignor	-11148
▁liver	-11149
▁logic	-11150
▁remem	-11151
▁rooms	-11152
▁sales	-11153
▁style	-11154
▁toxic	-11155
▁chocol	-11156
▁needle	-11157
onscious	-11158
▁January	-11159
▁borders	-11160
▁conserv	-11161
▁elephant	-11162
▁equation	-11163
▁parallel	-11164
▁policies	-11165
▁breathing	-11166
▁recording	-11167
▁confidence	-11168
▁strategies	-11169
▁manufacture	-11170
mm	-11171
wr	-11172
ye	-11173
刚好	-11174
匹配	-11175
味道	-11176
土星	-11177
地表	-11178
外部	-11179
对手	-11180
意的	-11181
指令	-11182
火虫	-11183
短片	-11184
简短	-11185
老板	-11186
聆听	-11187
聚会	-11188
脑中	-11189
著名	-11190
表格	-11191
车辆	-11192
还不	-11193
遭遇	-11194
风暴	-11195
餐馆	-11196
鼠标	-11197
hol	-11198
nam	-11199
▁27	-11200
▁孩子	-11201
▁当他	-11202
▁毕竟	-11203
▁由此	-11204
一百万	-11205
你可能	-11206
史蒂夫	-11207
向我们	-11208
哲学家	-11209
最后的	-11210
的中心	-11211
的文化	-11212
而来的	-11213
萤火虫	-11214
诺贝尔	-11215
起作用	-11216
造成了	-11217
rary	-11218
roso	-11219
ulse	-11220
▁Bob	-11221
▁Get	-11222
▁Jes	-11223
▁mim	-11224
▁并没有	-11225
▁当我在	-11226
▁我不能	-11227
▁我决定	-11228
▁是一种	-11229
一些事情	-11230
就是我们	-11231
athan	-11232
oster	-11233
▁9/11	-11234
▁corn	-11235
▁hook	-11236
▁pill	-11237
▁susp	-11238
▁till	-11239
▁如果你们	-11240
▁还有一个	-11241
iPhone	-11242
▁House	-11243
▁accum	-11244
▁breed	-11245
▁fluid	-11246
▁judge	-11247
▁legis	-11248
▁males	-11249
▁toler	-11250
erences	-11251
raction	-11252
▁missed	-11253
▁plenty	-11254
ographer	-11255
▁Angeles	-11256
▁existed	-11257
▁scratch	-11258
▁grateful	-11259
▁treating	-11260
▁component	-11261
▁consumers	-11262
▁customers	-11263
▁insurance	-11264
▁intuitive	-11265
▁lifestyle	-11266
▁paintings	-11267
▁standards	-11268
▁capitalism	-11269
47	-11270
▁离	-11271
万年	-11272
于此	-11273
低的	-11274
十二	-11275
去找	-11276
和谐	-11277
国民	-11278
坏了	-11279
姿势	-11280
室内	-11281
应的	-11282
我爱	-11283
手里	-11284
打交	-11285
拜访	-11286
指标	-11287
搭建	-11288
晚餐	-11289
果蝇	-11290
枪鱼	-11291
水下	-11292
活力	-11293
深处	-11294
烹饪	-11295
爵士	-11296
精英	-11297
螺旋	-11298
触摸	-11299
那边	-11300
隔离	-11301
顺序	-11302
额外	-11303
sem	-11304
▁Jo	-11305
▁寻找	-11306
▁感觉	-11307
了他们	-11308
几分钟	-11309
年前的	-11310
是否能	-11311
独立的	-11312
的图片	-11313
的活动	-11314
糖尿病	-11315
证明了	-11316
身上的	-11317
进入了	-11318
那个人	-11319
appy	-11320
▁Sil	-11321
▁cup	-11322
▁sem	-11323
▁van	-11324
▁同时也	-11325
▁无论是	-11326
▁这两个	-11327
岁的孩子	-11328
是我们的	-11329
inder	-11330
orter	-11331
▁High	-11332
▁June	-11333
▁Pole	-11334
▁pour	-11335
▁prem	-11336
arters	-11337
phones	-11338
▁Haiti	-11339
▁Inter	-11340
▁Voice	-11341
▁decre	-11342
▁dense	-11343
▁drove	-11344
▁recyc	-11345
▁shell	-11346
▁walks	-11347
unclear	-11348
▁clinic	-11349
▁hearts	-11350
▁heroes	-11351
▁myster	-11352
▁narrow	-11353
▁profit	-11354
▁repair	-11355
▁writer	-11356
▁charity	-11357
▁mammals	-11358
▁wanting	-11359
▁estimate	-11360
▁floating	-11361
▁involves	-11362
▁recovery	-11363
▁suggests	-11364
▁swimming	-11365
▁algorithm	-11366
▁depending	-11367
▁exploring	-11368
▁architects	-11369
▁collecting	-11370
▁fascinated	-11371
▁underwater	-11372
▁conservation	-11373
▁transparency	-11374
"]	-11375
),	-11376
22	-11377
9.	-11378
Ar	-11379
tw	-11380
▁特	-11381
▁讲	-11382
乐意	-11383
买到	-11384
亲密	-11385
你得	-11386
依据	-11387
典型	-11388
分解	-11389
只会	-11390
国王	-11391
审查	-11392
小型	-11393
工资	-11394
布朗	-11395
常规	-11396
年纪	-11397
录音	-11398
德拉	-11399
我把	-11400
捕食	-11401
核能	-11402
沃尔	-11403
流程	-11404
激进	-11405
第四	-11406
肥皂	-11407
这件	-11408
醒来	-11409
雄性	-11410
预期	-11411
arp	-11412
oca	-11413
olf	-11414
sum	-11415
▁2.	-11416
▁Cr	-11417
▁Ug	-11418
▁之前	-11419
▁到底	-11420
▁各种	-11421
▁是个	-11422
▁简单	-11423
一个月	-11424
几十年	-11425
对自己	-11426
弄清楚	-11427
很棒的	-11428
生命中	-11429
的态度	-11430
考虑到	-11431
该如何	-11432
语言的	-11433
选择了	-11434
金枪鱼	-11435
2010	-11436
arry	-11437
east	-11438
phas	-11439
tery	-11440
ubes	-11441
uity	-11442
▁Boy	-11443
哥伦比亚	-11444
解决方法	-11445
ester	-11446
under	-11447
▁firm	-11448
▁golf	-11449
▁rush	-11450
▁你们可以	-11451
▁而且他们	-11452
▁banks	-11453
▁orbit	-11454
▁stack	-11455
▁latest	-11456
▁lovely	-11457
▁Finally	-11458
▁obesity	-11459
▁opposed	-11460
▁painful	-11461
▁poorest	-11462
▁receive	-11463
▁spectac	-11464
▁stretch	-11465
▁achieved	-11466
▁meetings	-11467
▁Christian	-11468
▁destroyed	-11469
▁recommend	-11470
▁recognized	-11471
▁interactive	-11472
▁conventional	-11473
▁entrepreneur	-11474
▁interactions	-11475
──	-11476
▁巴	-11477
一刻	-11478
主流	-11479
乌干	-11480
但我	-11481
全身	-11482
内在	-11483
协会	-11484
厉害	-11485
咨询	-11486
在做	-11487
好吗	-11488
座椅	-11489
很酷	-11490
微软	-11491
性质	-11492
情报	-11493
最早	-11494
机场	-11495
汽油	-11496
生育	-11497
的电	-11498
直升	-11499
等着	-11500
考试	-11501
般的	-11502
街区	-11503
麻痹	-11504
麻省	-11505
黑色	-11506
GPS	-11507
azz	-11508
nes	-11509
vas	-11510
▁不断	-11511
▁发展	-11512
▁就算	-11513
▁工作	-11514
乌干达	-11515
他们有	-11516
就知道	-11517
查尔斯	-11518
疯狂的	-11519
经济学	-11520
诸如此	-11521
udes	-11522
walk	-11523
▁Del	-11524
▁Mad	-11525
▁NGO	-11526
▁beg	-11527
▁meg	-11528
▁什么是	-11529
▁全世界	-11530
▁我们正	-11531
▁让我来	-11532
你就可以	-11533
变成一个	-11534
看到这些	-11535
非常简单	-11536
eness	-11537
iders	-11538
iform	-11539
itory	-11540
think	-11541
▁Budd	-11542
▁cens	-11543
▁gray	-11544
▁neut	-11545
▁ours	-11546
▁stro	-11547
orking	-11548
▁gonna	-11549
▁purch	-11550
▁wings	-11551
▁yield	-11552
itution	-11553
onymous	-11554
▁Martin	-11555
▁acknow	-11556
▁filter	-11557
▁hunger	-11558
▁rising	-11559
▁thrown	-11560
▁Nothing	-11561
▁cheaper	-11562
▁density	-11563
▁windows	-11564
▁attached	-11565
▁brothers	-11566
▁imagined	-11567
▁mushroom	-11568
▁produces	-11569
▁commitment	-11570
▁connecting	-11571
▁contribute	-11572
▁engagement	-11573
▁performing	-11574
▁x	-11575
》。	-11576
一周	-11577
一无	-11578
上传	-11579
不上	-11580
似的	-11581
你去	-11582
储蓄	-11583
字塔	-11584
岁了	-11585
惊喜	-11586
极度	-11587
极限	-11588
游行	-11589
特质	-11590
生气	-11591
用途	-11592
肢体	-11593
被人	-11594
说说	-11595
韩国	-11596
90%	-11597
lyn	-11598
rol	-11599
▁Ox	-11600
▁一次	-11601
▁也会	-11602
▁你不	-11603
不再是	-11604
合理的	-11605
建立了	-11606
我之前	-11607
我今天	-11608
政治家	-11609
的人民	-11610
的另一	-11611
美妙的	-11612
都不会	-11613
金字塔	-11614
ardo	-11615
gers	-11616
▁我父亲	-11617
不一样的	-11618
这个国家	-11619
这种情况	-11620
angle	-11621
iance	-11622
▁Jeff	-11623
▁dict	-11624
▁excl	-11625
▁flip	-11626
▁而且我们	-11627
▁这并不是	-11628
▁这是一张	-11629
abetes	-11630
ptions	-11631
▁enemy	-11632
▁fears	-11633
▁globe	-11634
▁skull	-11635
▁units	-11636
▁usual	-11637
▁utter	-11638
anthrop	-11639
century	-11640
▁Sweden	-11641
▁assemb	-11642
▁obstac	-11643
▁placed	-11644
▁scream	-11645
▁authent	-11646
▁classic	-11647
▁disgust	-11648
▁monitor	-11649
▁neither	-11650
▁offered	-11651
▁pretend	-11652
▁raising	-11653
▁whereas	-11654
▁Africans	-11655
▁magnetic	-11656
▁properly	-11657
▁romantic	-11658
▁traveled	-11659
▁emergency	-11660
▁practices	-11661
▁telephone	-11662
▁controvers	-11663
▁interacting	-11664
优雅	-11665
几周	-11666
卢旺	-11667
吃的	-11668
含量	-11669
夜晚	-11670
天赋	-11671
学位	-11672
当成	-11673
拍的	-11674
激光	-11675
牛奶	-11676
独自	-11677
画的	-11678
说道	-11679
购物	-11680
通信	-11681
通道	-11682
长达	-11683
青蛙	-11684
食用	-11685
▁你想	-11686
▁十分	-11687
▁对此	-11688
不停地	-11689
为自己	-11690
依赖于	-11691
卢旺达	-11692
史以来	-11693
在上面	-11694
大气层	-11695
大问题	-11696
小行星	-11697
尝试着	-11698
必要的	-11699
打印机	-11700
收到了	-11701
的价值	-11702
的地区	-11703
的网络	-11704
的语言	-11705
研究了	-11706
类动物	-11707
网站上	-11708
转化为	-11709
都不是	-11710
Talk	-11711
ords	-11712
rect	-11713
wich	-11714
▁Bay	-11715
▁ate	-11716
▁enh	-11717
▁fan	-11718
▁而他们	-11719
▁这个人	-11720
所看到的	-11721
种不同的	-11722
这个数字	-11723
这项技术	-11724
需要一个	-11725
agger	-11726
leton	-11727
▁Girl	-11728
▁sacr	-11729
▁如果你在	-11730
apping	-11731
ivered	-11732
struct	-11733
▁Human	-11734
▁Korea	-11735
▁Smith	-11736
▁angle	-11737
▁dirty	-11738
▁grows	-11739
▁metab	-11740
▁persu	-11741
▁tired	-11742
▁youth	-11743
forward	-11744
iveness	-11745
▁candid	-11746
▁secure	-11747
▁William	-11748
▁balloon	-11749
▁classes	-11750
▁guarant	-11751
▁Research	-11752
▁drinking	-11753
▁shooting	-11754
▁apartment	-11755
▁generated	-11756
▁uncertain	-11757
▁functional	-11758
▁antibiotics	-11759
▁transparent	-11760
▁implications	-11761
▁电	-11762
一所	-11763
事的	-11764
代人	-11765
写道	-11766
包装	-11767
司法	-11768
地铁	-11769
大大	-11770
好比	-11771
山脉	-11772
市长	-11773
布什	-11774
引力	-11775
收藏	-11776
教训	-11777
本能	-11778
永恒	-11779
法庭	-11780
温暖	-11781
的好	-11782
给它	-11783
而不	-11784
运算	-11785
这边	-11786
随便	-11787
零件	-11788
面上	-11789
196	-11790
50%	-11791
des	-11792
gel	-11793
gic	-11794
idi	-11795
oma	-11796
▁65	-11797
▁以此	-11798
▁你有	-11799
▁它有	-11800
▁更多	-11801
▁没错	-11802
了一场	-11803
了什么	-11804
了他的	-11805
了起来	-11806
到我们	-11807
原来的	-11808
参与者	-11809
只有一	-11810
将他们	-11811
我不会	-11812
我说的	-11813
是没有	-11814
潜在的	-11815
的事业	-11816
的效果	-11817
的模式	-11818
的物种	-11819
细胞的	-11820
问自己	-11821
ello	-11822
ocal	-11823
rade	-11824
thal	-11825
▁Bur	-11826
▁Mor	-11827
▁Nic	-11828
▁bon	-11829
▁dio	-11830
▁gig	-11831
▁gla	-11832
▁对我们	-11833
任何事情	-11834
做了什么	-11835
几个星期	-11836
对我们的	-11837
inals	-11838
▁bias	-11839
▁cute	-11840
▁dust	-11841
▁loop	-11842
▁pink	-11843
▁那是一个	-11844
icious	-11845
▁Ghana	-11846
▁aband	-11847
▁aston	-11848
▁chaos	-11849
▁chrom	-11850
▁delic	-11851
▁digit	-11852
▁fruit	-11853
▁likes	-11854
▁paras	-11855
▁seeds	-11856
▁sheep	-11857
▁storm	-11858
▁tasks	-11859
▁这是我们的	-11860
▁adjust	-11861
▁defend	-11862
▁prices	-11863
▁bicycle	-11864
▁concern	-11865
▁dignity	-11866
▁prosper	-11867
▁shoulder	-11868
▁symmetry	-11869
▁earthquake	-11870
▁advertising	-11871
ek	-11872
▁书	-11873
▁单	-11874
▁左	-11875
一颗	-11876
业务	-11877
为之	-11878
主导	-11879
亲眼	-11880
发起	-11881
名声	-11882
宇航	-11883
安慰	-11884
家具	-11885
将近	-11886
屋子	-11887
床上	-11888
愉快	-11889
手中	-11890
扭曲	-11891
操控	-11892
斯卡	-11893
时常	-11894
最为	-11895
最多	-11896
最有	-11897
比尔	-11898
添加	-11899
潜在	-11900
男士	-11901
给她	-11902
群人	-11903
要做	-11904
要素	-11905
解剖	-11906
赞助	-11907
这片	-11908
透过	-11909
里约	-11910
Let	-11911
nov	-11912
▁Op	-11913
▁你也	-11914
▁像是	-11915
▁声音	-11916
▁建筑	-11917
▁生活	-11918
亲爱的	-11919
却没有	-11920
坏消息	-11921
大概是	-11922
学校的	-11923
就不会	-11924
是通过	-11925
的人群	-11926
的理解	-11927
网络上	-11928
2008	-11929
ault	-11930
doll	-11931
iday	-11932
lete	-11933
oman	-11934
osen	-11935
▁Bon	-11936
▁Gra	-11937
▁Pre	-11938
▁lob	-11939
▁tip	-11940
▁你现在	-11941
▁当人们	-11942
▁当时我	-11943
准备好了	-11944
已经开始	-11945
觉得自己	-11946
iated	-11947
level	-11948
state	-11949
▁seek	-11950
▁爱因斯坦	-11951
▁谢谢你们	-11952
之间的关系	-11953
我们就可以	-11954
called	-11955
▁adopt	-11956
▁smoke	-11957
▁suppl	-11958
▁upset	-11959
▁50,000	-11960
▁Uganda	-11961
▁portra	-11962
▁powers	-11963
▁repeat	-11964
▁spoken	-11965
▁weapon	-11966
▁amongst	-11967
▁awesome	-11968
▁diagram	-11969
▁methods	-11970
▁muscles	-11971
▁unbelie	-11972
▁dolphins	-11973
▁overcome	-11974
▁animation	-11975
▁afterwards	-11976
▁capability	-11977
▁incentives	-11978
▁optimistic	-11979
▁rainforest	-11980
▁neighborhoods	-11981
Al	-11982
BA	-11983
bi	-11984
▁飞	-11985
之上	-11986
他会	-11987
你也	-11988
入侵	-11989
再来	-11990
实体	-11991
封闭	-11992
就业	-11993
带上	-11994
开源	-11995
想出	-11996
截然	-11997
把他	-11998
把你	-11999
无处	-12000
早晨	-12001
晶体	-12002
服用	-12003
格斯	-12004
步行	-12005
海底	-12006
热的	-12007
白色	-12008
短期	-12009
积累	-12010
竞赛	-12011
西亚	-12012
读到	-12013
走过	-12014
辆车	-12015
青年	-12016
aks	-12017
gly	-12018
ida	-12019
▁22	-12020
▁Hi	-12021
▁Rw	-12022
▁总之	-12023
▁直接	-12024
▁试着	-12025
一无所	-12026
他们能	-12027
周围的	-12028
城市里	-12029
复杂性	-12030
大约有	-12031
对这些	-12032
层面上	-12033
工作中	-12034
并不能	-12035
开玩笑	-12036
所需的	-12037
显示了	-12038
的增长	-12039
真正地	-12040
社会中	-12041
给自己	-12042
这句话	-12043
lims	-12044
rous	-12045
▁Cor	-12046
▁aim	-12047
▁obl	-12048
▁sed	-12049
▁但我想	-12050
▁但这些	-12051
▁我甚至	-12052
的一件事	-12053
▁Cons	-12054
▁Step	-12055
▁Stud	-12056
▁debt	-12057
▁mold	-12058
▁rely	-12059
▁salt	-12060
▁他们认为	-12061
▁你可以在	-12062
不同的方式	-12063
联系在一起	-12064
▁Super	-12065
▁anger	-12066
▁champ	-12067
▁flood	-12068
▁maxim	-12069
uration	-12070
▁Jewish	-12071
▁attrib	-12072
▁borrow	-12073
▁output	-12074
▁scenar	-12075
▁autonom	-12076
▁concert	-12077
▁dioxide	-12078
▁diverse	-12079
▁entered	-12080
▁habitat	-12081
▁appeared	-12082
▁breaking	-12083
▁darkness	-12084
▁dynamics	-12085
▁focusing	-12086
▁infinite	-12087
▁reported	-12088
▁backwards	-12089
▁chocolate	-12090
▁corporate	-12091
▁dedicated	-12092
▁delivered	-12093
▁exhibition	-12094
▁historical	-12095
▁instruments	-12096
5.	-12097
▁拉	-12098
与之	-12099
人造	-12100
使它	-12101
公斤	-12102
医师	-12103
品质	-12104
对付	-12105
对着	-12106
尔兰	-12107
就不	-12108
干嘛	-12109
心中	-12110
挑选	-12111
挪威	-12112
更新	-12113
泡沫	-12114
火山	-12115
给出	-12116
缺少	-12117
蘑菇	-12118
装备	-12119
警告	-12120
询问	-12121
负面	-12122
跑步	-12123
辈子	-12124
骄傲	-12125
20%	-12126
aws	-12127
cut	-12128
uba	-12129
▁2,	-12130
▁Gr	-12131
▁Us	-12132
▁仍然	-12133
▁但却	-12134
▁她在	-12135
▁我得	-12136
▁这很	-12137
▁难道	-12138
不过是	-12139
人们会	-12140
听到了	-12141
围绕着	-12142
在他们	-12143
增加了	-12144
家公司	-12145
很小的	-12146
把你的	-12147
接受了	-12148
教育的	-12149
数百万	-12150
斯坦福	-12151
无线电	-12152
早期的	-12153
的小孩	-12154
的核心	-12155
的那样	-12156
目标是	-12157
那里的	-12158
exas	-12159
nded	-12160
▁Vir	-12161
▁fib	-12162
▁nit	-12163
▁tag	-12164
▁twe	-12165
▁和我们	-12166
▁第三个	-12167
一个故事	-12168
成为一名	-12169
我们希望	-12170
正是我们	-12171
的事情是	-12172
archy	-12173
aving	-12174
going	-12175
quare	-12176
▁Mand	-12177
▁axis	-12178
▁bubb	-12179
▁coun	-12180
▁ethn	-12181
▁fulf	-12182
heimer	-12183
rosoft	-12184
usions	-12185
▁Black	-12186
▁Nobel	-12187
▁Space	-12188
▁Texas	-12189
▁aside	-12190
▁tight	-12191
▁wound	-12192
▁我们都知道	-12193
▁这就意味着	-12194
ogether	-12195
▁20,000	-12196
▁Really	-12197
▁agenda	-12198
▁ignore	-12199
▁intent	-12200
▁layers	-12201
▁marine	-12202
▁poison	-12203
▁stages	-12204
▁surely	-12205
▁divided	-12206
▁exposed	-12207
▁orchest	-12208
▁Stanford	-12209
▁captured	-12210
▁controls	-12211
▁diabetes	-12212
▁equality	-12213
▁sculpture	-12214
▁journalist	-12215
▁electronics	-12216
▁personality	-12217
75	-12218
BI	-12219
aj	-12220
▁:	-12221
一小	-12222
三倍	-12223
上百	-12224
乳房	-12225
了他	-12226
交配	-12227
内战	-12228
冬天	-12229
医药	-12230
厌恶	-12231
受益	-12232
四周	-12233
姆斯	-12234
它为	-12235
室里	-12236
常见	-12237
底下	-12238
开关	-12239
救援	-12240
方说	-12241
旅游	-12242
来临	-12243
棵树	-12244
狮子	-12245
生病	-12246
知觉	-12247
科研	-12248
紧急	-12249
纯粹	-12250
脑部	-12251
良好	-12252
蔓延	-12253
读书	-12254
轨迹	-12255
键盘	-12256
震撼	-12257
agh	-12258
▁Hy	-12259
▁LG	-12260
▁不久	-12261
▁具有	-12262
▁我用	-12263
▁民主	-12264
▁电脑	-12265
▁约翰	-12266
▁终于	-12267
不是在	-12268
价值的	-12269
全球的	-12270
勒斯坦	-12271
反应堆	-12272
在非洲	-12273
我决定	-12274
或者说	-12275
打交道	-12276
没办法	-12277
起来了	-12278
pass	-12279
utch	-12280
▁120	-12281
▁Sov	-12282
▁tro	-12283
▁我想说	-12284
电子邮件	-12285
科学研究	-12286
aming	-12287
class	-12288
copes	-12289
ctica	-12290
power	-12291
▁Adam	-12292
▁beer	-12293
▁soap	-12294
▁但实际上	-12295
▁你能看到	-12296
对我们来说	-12297
▁chest	-12298
▁chief	-12299
▁elder	-12300
▁fuels	-12301
through	-12302
▁Indeed	-12303
▁facial	-12304
▁geomet	-12305
▁hungry	-12306
▁invite	-12307
▁orange	-12308
▁satisf	-12309
Facebook	-12310
▁Islamic	-12311
▁chromos	-12312
▁disturb	-12313
▁federal	-12314
▁speaker	-12315
▁baseball	-12316
▁football	-12317
▁committed	-12318
▁Antarctica	-12319
▁apparently	-12320
▁cooperation	-12321
28	-12322
▁格	-12323
▁花	-12324
▁转	-12325
一万	-12326
不出	-12327
丧失	-12328
之心	-12329
像个	-12330
准则	-12331
创业	-12332
四十	-12333
坐着	-12334
头上	-12335
季节	-12336
开来	-12337
弯曲	-12338
当做	-12339
想着	-12340
意愿	-12341
担忧	-12342
推测	-12343
明智	-12344
水源	-12345
牛津	-12346
特网	-12347
界限	-12348
盯着	-12349
竞选	-12350
绘制	-12351
维度	-12352
能否	-12353
规范	-12354
那就	-12355
阶级	-12356
顾问	-12357
80%	-12358
ini	-12359
mun	-12360
omb	-12361
top	-12362
war	-12363
▁0.	-12364
▁na	-12365
▁唯一	-12366
▁让人	-12367
▁还要	-12368
▁那样	-12369
了许多	-12370
以上的	-12371
做出了	-12372
再一次	-12373
在过去	-12374
完全是	-12375
并不会	-12376
成功地	-12377
提供的	-12378
最近的	-12379
的人物	-12380
的理论	-12381
目的是	-12382
背后的	-12383
面对的	-12384
adic	-12385
emic	-12386
ione	-12387
part	-12388
zens	-12389
▁Ice	-12390
▁der	-12391
▁wip	-12392
▁在这种	-12393
▁看上去	-12394
你自己的	-12395
很重要的	-12396
的时间里	-12397
相互作用	-12398
高尔夫球	-12399
cence	-12400
ckets	-12401
mates	-12402
▁boom	-12403
▁dish	-12404
▁rail	-12405
▁你就可以	-12406
▁我们就能	-12407
▁我们想要	-12408
yright	-12409
▁Scott	-12410
▁abund	-12411
▁brown	-12412
▁conce	-12413
▁disag	-12414
▁drill	-12415
▁fifth	-12416
▁manif	-12417
▁meter	-12418
▁reson	-12419
▁veter	-12420
▁vital	-12421
▁更重要的是	-12422
illance	-12423
▁hardly	-12424
▁mainly	-12425
▁scales	-12426
▁script	-12427
▁talent	-12428
▁airport	-12429
▁crucial	-12430
▁pyramid	-12431
▁recover	-12432
▁touched	-12433
▁tragedy	-12434
▁dominant	-12435
▁reaching	-12436
▁vertical	-12437
▁continues	-12438
▁curiosity	-12439
▁elsewhere	-12440
▁furniture	-12441
▁affordable	-12442
▁boundaries	-12443
▁governance	-12444
▁integrated	-12445
▁transplant	-12446
▁disappeared	-12447
▁innovations	-12448
6.	-12449
li	-12450
▁越	-12451
举办	-12452
亿个	-12453
催产	-12454
公式	-12455
包围	-12456
北美	-12457
发言	-12458
官员	-12459
实话	-12460
寄生	-12461
很高	-12462
恐怕	-12463
想去	-12464
想起	-12465
折纸	-12466
挽救	-12467
整天	-12468
星星	-12469
暗示	-12470
某一	-12471
此刻	-12472
痴呆	-12473
的长	-12474
耐心	-12475
聚焦	-12476
越大	-12477
这会	-12478
银河	-12479
错觉	-12480
预料	-12481
10%	-12482
700	-12483
ela	-12484
ena	-12485
▁很难	-12486
▁持续	-12487
▁教育	-12488
▁更加	-12489
上百万	-12490
丰富的	-12491
你是否	-12492
六个月	-12493
劳动力	-12494
可以从	-12495
可以说	-12496
右边的	-12497
大概有	-12498
小女孩	-12499
小孩子	-12500
我们去	-12501
是完全	-12502
死亡的	-12503
的发现	-12504
的发生	-12505
看着我	-12506
让它们	-12507
cean	-12508
oust	-12509
▁10-	-12510
▁Alz	-12511
▁Leg	-12512
▁MRI	-12513
▁Mac	-12514
▁Wal	-12515
▁lin	-12516
▁tri	-12517
▁下一个	-12518
几个小时	-12519
我不得不	-12520
我的朋友	-12521
看到一个	-12522
结合起来	-12523
聚在一起	-12524
这个样子	-12525
tical	-12526
▁Turn	-12527
▁laid	-12528
▁leap	-12529
▁lift	-12530
▁plot	-12531
▁quad	-12532
▁这个项目	-12533
utical	-12534
▁Grand	-12535
▁realm	-12536
▁reput	-12537
Twitter	-12538
▁chosen	-12539
▁devast	-12540
▁emphas	-12541
▁fisher	-12542
▁locked	-12543
▁neural	-12544
▁neuron	-12545
▁trends	-12546
children	-12547
▁Eastern	-12548
▁Muslims	-12549
▁TEDTalk	-12550
▁herself	-12551
▁inspire	-12552
▁instant	-12553
▁passing	-12554
▁reduced	-12555
▁suicide	-12556
▁synthes	-12557
▁lighting	-12558
▁minister	-12559
▁particle	-12560
▁Alzheimer	-12561
▁colleague	-12562
▁diagnosed	-12563
▁encounter	-12564
▁intention	-12565
▁passwords	-12566
▁telescope	-12567
▁virtually	-12568
▁accessible	-12569
▁assumptions	-12570
▁consequence	-12571
▁ingredients	-12572
▁expectations	-12573
▁characteristics	-12574
-2	-12575
fe	-12576
wl	-12577
▁买	-12578
▁啊	-12579
▁试	-12580
▁近	-12581
上方	-12582
促使	-12583
分成	-12584
到我	-12585
原料	-12586
各地	-12587
否认	-12588
听见	-12589
器的	-12590
囚犯	-12591
坦白	-12592
姥鲨	-12593
带领	-12594
废弃	-12595
当下	-12596
战士	-12597
护理	-12598
拿起	-12599
搜寻	-12600
教导	-12601
有益	-12602
构想	-12603
激烈	-12604
瘫痪	-12605
目光	-12606
装饰	-12607
西洋	-12608
讲座	-12609
设定	-12610
课题	-12611
躺在	-12612
镜子	-12613
阐述	-12614
首诗	-12615
arl	-12616
auc	-12617
aze	-12618
erd	-12619
err	-12620
oir	-12621
pha	-12622
▁参与	-12623
▁只能	-12624
▁如同	-12625
▁很快	-12626
▁我去	-12627
▁所谓	-12628
▁男人	-12629
一会儿	-12630
之一是	-12631
催产素	-12632
制造的	-12633
发出的	-12634
将它们	-12635
当时的	-12636
理性的	-12637
的一位	-12638
的家庭	-12639
的游戏	-12640
解决了	-12641
icks	-12642
keep	-12643
▁Dis	-12644
▁Eth	-12645
▁Rio	-12646
▁hol	-12647
整个世界	-12648
温室气体	-12649
麻省理工	-12650
inger	-12651
▁glad	-12652
▁peer	-12653
▁prev	-12654
▁tied	-12655
最重要的是	-12656
lessly	-12657
▁crops	-12658
▁finds	-12659
▁imper	-12660
▁links	-12661
▁minor	-12662
▁opens	-12663
▁whist	-12664
astroph	-12665
▁Palest	-12666
▁behave	-12667
▁conven	-12668
▁dozens	-12669
▁emerge	-12670
▁genius	-12671
▁retire	-12672
▁shadow	-12673
▁subtle	-12674
▁chapter	-12675
▁citizen	-12676
▁disrupt	-12677
▁essence	-12678
▁initial	-12679
▁lecture	-12680
▁rebuild	-12681
▁suspect	-12682
aceutical	-12683
▁contains	-12684
▁flexible	-12685
▁provides	-12686
▁speakers	-12687
▁vaccines	-12688
▁Hollywood	-12689
▁permanent	-12690
▁reduction	-12691
▁resolution	-12692
▁ridiculous	-12693
▁volunteers	-12694
▁demonstrate	-12695
▁spectacular	-12696
▁productivity	-12697
,'	-12698
32	-12699
▁.	-12700
为例	-12701
五千	-12702
减轻	-12703
剧院	-12704
在乎	-12705
声明	-12706
姐姐	-12707
孤儿	-12708
强奸	-12709
当的	-12710
思路	-12711
把手	-12712
提琴	-12713
政客	-12714
替换	-12715
权的	-12716
根源	-12717
检验	-12718
武装	-12719
毫不	-12720
滑雪	-12721
点儿	-12722
热衷	-12723
直线	-12724
着陆	-12725
简洁	-12726
终结	-12727
经理	-12728
结局	-12729
车上	-12730
阴道	-12731
鱼类	-12732
oor	-12733
▁IM	-12734
▁很好	-12735
▁我猜	-12736
▁比起	-12737
从这个	-12738
你已经	-12739
你怎么	-12740
写了一	-12741
在那个	-12742
奥巴马	-12743
它们在	-12744
把我的	-12745
提出了	-12746
数量的	-12747
暗物质	-12748
有力的	-12749
甚至是	-12750
的功能	-12751
的需求	-12752
相似的	-12753
解释了	-12754
这方面	-12755
非洲人	-12756
额外的	-12757
..."	-12758
ache	-12759
icop	-12760
ober	-12761
ocin	-12762
rome	-12763
rons	-12764
▁'60	-12765
▁Hel	-12766
▁Hig	-12767
▁Six	-12768
▁aer	-12769
▁不只是	-12770
▁他们想	-12771
▁你应该	-12772
▁我感到	-12773
令人兴奋	-12774
各种各样	-12775
得到一个	-12776
维基百科	-12777
alian	-12778
bered	-12779
obile	-12780
osure	-12781
▁east	-12782
▁hire	-12783
▁mall	-12784
▁nets	-12785
▁pile	-12786
▁ugly	-12787
▁我们就会	-12788
dollar	-12789
▁apple	-12790
▁naked	-12791
▁recru	-12792
▁traum	-12793
▁Oxford	-12794
▁fertil	-12795
▁funded	-12796
▁stable	-12797
changing	-12798
▁consume	-12799
▁printed	-12800
▁pulling	-12801
▁dinosaur	-12802
▁informed	-12803
▁Microsoft	-12804
▁elections	-12805
▁sentences	-12806
▁synthetic	-12807
▁variation	-12808
▁suggesting	-12809
1%	-12810
48	-12811
OL	-12812
So	-12813
▁超	-12814
▁远	-12815
一头	-12816
九十	-12817
事儿	-12818
二的	-12819
全力	-12820
关节	-12821
压缩	-12822
只需	-12823
大多	-12824
大战	-12825
大海	-12826
天哪	-12827
官方	-12828
尊严	-12829
尊敬	-12830
尔德	-12831
尚未	-12832
忍受	-12833
性能	-12834
慈悲	-12835
慷慨	-12836
指示	-12837
效益	-12838
暂时	-12839
消防	-12840
用水	-12841
碰撞	-12842
约会	-12843
而非	-12844
要么	-12845
议题	-12846
设法	-12847
财产	-12848
轻易	-12849
麻醉	-12850
ETI	-12851
def	-12852
iac	-12853
▁一定	-12854
▁形成	-12855
▁控制	-12856
▁要是	-12857
伴随着	-12858
共同的	-12859
到这个	-12860
加入了	-12861
历史的	-12862
在纽约	-12863
坐下来	-12864
失败了	-12865
学习的	-12866
很喜欢	-12867
摄像头	-12868
核武器	-12869
理查德	-12870
的细胞	-12871
的视频	-12872
看这个	-12873
研究生	-12874
还记得	-12875
重大的	-12876
lear	-12877
▁Gab	-12878
▁Hey	-12879
▁Joe	-12880
▁Ten	-12881
▁spr	-12882
▁wra	-12883
也是如此	-12884
医疗保健	-12885
很感兴趣	-12886
解释一下	-12887
这意味着	-12888
远的地方	-12889
非常好的	-12890
itate	-12891
opher	-12892
owing	-12893
▁Bron	-12894
▁dism	-12895
▁earn	-12896
▁hill	-12897
▁但是现在	-12898
▁你也可以	-12899
▁因为这个	-12900
前所未有的	-12901
ietnam	-12902
▁Congo	-12903
▁alien	-12904
▁blank	-12905
▁court	-12906
▁cryst	-12907
▁drawn	-12908
▁flows	-12909
▁holds	-12910
▁pilot	-12911
▁punch	-12912
▁seats	-12913
▁shake	-12914
▁thumb	-12915
▁unpre	-12916
▁yours	-12917
▁capita	-12918
▁frozen	-12919
▁oldest	-12920
▁perpet	-12921
▁smooth	-12922
▁anthrop	-12923
▁consult	-12924
▁defense	-12925
▁delight	-12926
▁happier	-12927
▁lawyers	-12928
▁protest	-12929
▁removed	-12930
▁symbols	-12931
▁welcome	-12932
▁Children	-12933
▁conclude	-12934
▁facility	-12935
▁globally	-12936
▁reminded	-12937
▁repeated	-12938
▁returned	-12939
▁sandwich	-12940
▁sleeping	-12941
▁privilege	-12942
▁searching	-12943
▁uncomfort	-12944
▁catastroph	-12945
▁protecting	-12946
▁discoveries	-12947
▁International	-12948
▁communications	-12949
"?	-12950
▁曾	-12951
▁西	-12952
今日	-12953
假装	-12954
初期	-12955
助于	-12956
可怜	-12957
周边	-12958
善于	-12959
回头	-12960
复活	-12961
大声	-12962
必然	-12963
感恩	-12964
我只	-12965
手工	-12966
新生	-12967
方程	-12968
无神	-12969
未知	-12970
派对	-12971
渠道	-12972
白天	-12973
荧光	-12974
蒙特	-12975
鞋子	-12976
马克	-12977
高级	-12978
Can	-12979
▁32	-12980
▁从来	-12981
▁那天	-12982
▁面对	-12983
两个人	-12984
人口的	-12985
你应该	-12986
医学院	-12987
受到了	-12988
只是个	-12989
告诉他	-12990
将会是	-12991
工作了	-12992
建筑的	-12993
我们又	-12994
提出的	-12995
用一种	-12996
的时期	-12997
的看法	-12998
第二天	-12999
被称作	-13000
2007	-13001
oded	-13002
osal	-13003
zees	-13004
▁Oct	-13005
▁Ser	-13006
▁hey	-13007
▁hip	-13008
▁他们将	-13009
▁把它们	-13010
▁计算机	-13011
发达国家	-13012
我的演讲	-13013
的方式来	-13014
There	-13015
cking	-13016
isted	-13017
ocent	-13018
while	-13019
▁Cont	-13020
▁beet	-13021
▁kiss	-13022
▁neat	-13023
▁pand	-13024
▁pupp	-13025
▁wise	-13026
▁他们没有	-13027
▁你会看到	-13028
▁另外一个	-13029
▁Bible	-13030
▁Higgs	-13031
▁Third	-13032
▁begun	-13033
▁legit	-13034
▁mixed	-13035
▁proof	-13036
▁route	-13037
▁ultra	-13038
▁我们就可以	-13039
attered	-13040
ishment	-13041
▁adoles	-13042
▁degrad	-13043
▁farmer	-13044
▁heaven	-13045
▁injury	-13046
▁你们可以看到	-13047
▁anxiety	-13048
▁briefly	-13049
▁distant	-13050
▁drivers	-13051
▁impacts	-13052
▁letting	-13053
▁painted	-13054
▁pointed	-13055
▁targets	-13056
▁warning	-13057
▁external	-13058
▁northern	-13059
▁textbook	-13060
▁announced	-13061
▁calculate	-13062
▁conflicts	-13063
▁inspiring	-13064
▁simplicity	-13065
▁underground	-13066
▁surveillance	-13067
▁globalization	-13068
▁participation	-13069
DA	-13070
▁后	-13071
▁帕	-13072
体积	-13073
供给	-13074
克拉	-13075
八十	-13076
卡通	-13077
向上	-13078
启示	-13079
命令	-13080
地带	-13081
场合	-13082
她在	-13083
性地	-13084
性格	-13085
总和	-13086
战场	-13087
打造	-13088
景观	-13089
机的	-13090
杀害	-13091
每周	-13092
永久	-13093
法院	-13094
特技	-13095
的的	-13096
监测	-13097
看得	-13098
短暂	-13099
社群	-13100
种群	-13101
者和	-13102
膝盖	-13103
要比	-13104
讯息	-13105
访谈	-13106
谋杀	-13107
路线	-13108
酒吧	-13109
里克	-13110
队员	-13111
雌性	-13112
预言	-13113
bul	-13114
▁26	-13115
▁影响	-13116
▁放在	-13117
▁选择	-13118
什么的	-13119
你现在	-13120
使用它	-13121
在未来	-13122
奇妙的	-13123
居住在	-13124
建立在	-13125
想办法	-13126
我刚才	-13127
新技术	-13128
服务器	-13129
玩意儿	-13130
的疾病	-13131
的风险	-13132
行不通	-13133
集中在	-13134
飞行员	-13135
ahar	-13136
arre	-13137
atts	-13138
erer	-13139
illa	-13140
irds	-13141
kins	-13142
onia	-13143
onic	-13144
▁Mod	-13145
▁Moo	-13146
▁Sar	-13147
▁Tal	-13148
▁cab	-13149
▁ink	-13150
▁jun	-13151
▁lun	-13152
▁unh	-13153
▁但这是	-13154
▁在那个	-13155
▁大家都	-13156
▁当然了	-13157
▁这让我	-13158
二十世纪	-13159
交通工具	-13160
任何时候	-13161
发生的事	-13162
外科医生	-13163
完全不同	-13164
对于我们	-13165
拉丁美洲	-13166
放在一起	-13167
的原因是	-13168
神经系统	-13169
这个系统	-13170
这些都是	-13171
tocin	-13172
▁2011	-13173
▁Arch	-13174
▁Back	-13175
▁cash	-13176
▁fool	-13177
▁hier	-13178
▁mice	-13179
▁wing	-13180
▁这个故事	-13181
erving	-13182
▁Brown	-13183
▁Gates	-13184
▁evalu	-13185
▁schem	-13186
▁schol	-13187
▁spots	-13188
▁tears	-13189
▁Virgin	-13190
▁athlet	-13191
▁excell	-13192
▁sensor	-13193
▁tribes	-13194
▁Vietnam	-13195
▁beliefs	-13196
▁efforts	-13197
▁imaging	-13198
▁mystery	-13199
▁parties	-13200
▁accepted	-13201
▁attitude	-13202
▁incident	-13203
▁includes	-13204
▁isolated	-13205
▁frequency	-13206
▁treatments	-13207
▁uncomfortable	-13208
33	-13209
sp	-13210
。。	-13211
上班	-13212
不受	-13213
不着	-13214
两天	-13215
乐团	-13216
了吧	-13217
交给	-13218
众所	-13219
优先	-13220
伴侣	-13221
偶尔	-13222
冲击	-13223
单纯	-13224
回复	-13225
坏事	-13226
塞尔	-13227
实用	-13228
家园	-13229
巨型	-13230
底层	-13231
开采	-13232
强度	-13233
往下	-13234
意志	-13235
所作	-13236
是以	-13237
树林	-13238
案件	-13239
测序	-13240
深海	-13241
深远	-13242
特兰	-13243
病菌	-13244
看成	-13245
礼拜	-13246
简化	-13247
花钱	-13248
营利	-13249
行驶	-13250
西部	-13251
这块	-13252
追寻	-13253
阴影	-13254
风能	-13255
马里	-13256
▁95	-13257
▁SS	-13258
▁gh	-13259
▁事情	-13260
▁信息	-13261
▁再次	-13262
▁大卫	-13263
▁获得	-13264
▁让你	-13265
▁这幅	-13266
▁都能	-13267
一个新	-13268
不到的	-13269
决定的	-13270
可以让	-13271
天然气	-13272
市中心	-13273
开放的	-13274
我父亲	-13275
我非常	-13276
托马斯	-13277
栖息地	-13278
涉及到	-13279
清楚的	-13280
犹太人	-13281
的主要	-13282
的艺术	-13283
的这些	-13284
而言之	-13285
质量的	-13286
那些人	-13287
领导力	-13288
apor	-13289
zero	-13290
▁hat	-13291
▁hem	-13292
▁lux	-13293
▁wid	-13294
▁现在你	-13295
▁这就像	-13296
▁那是在	-13297
成百上千	-13298
我们就能	-13299
我们无法	-13300
更多的人	-13301
机器人的	-13302
目前为止	-13303
非常有趣	-13304
front	-13305
▁Dere	-13306
▁Time	-13307
▁acid	-13308
▁brib	-13309
▁dump	-13310
▁enth	-13311
▁knee	-13312
▁trop	-13313
▁另一方面	-13314
▁在我看来	-13315
▁所以我就	-13316
▁所以这个	-13317
我们的大脑	-13318
▁Bronx	-13319
▁Peter	-13320
▁chips	-13321
▁choos	-13322
▁cliff	-13323
▁craft	-13324
▁diver	-13325
▁exped	-13326
▁flour	-13327
▁fract	-13328
▁laser	-13329
▁strip	-13330
▁views	-13331
▁如果我们能	-13332
▁我们不知道	-13333
▁barely	-13334
▁branch	-13335
▁curren	-13336
▁escape	-13337
▁legacy	-13338
▁stores	-13339
▁tricks	-13340
▁trucks	-13341
▁October	-13342
▁clients	-13343
▁granted	-13344
▁helicop	-13345
▁picking	-13346
▁aircraft	-13347
▁district	-13348
▁extended	-13349
▁inherent	-13350
▁manifest	-13351
▁morality	-13352
▁separated	-13353
▁teenagers	-13354
▁Department	-13355
▁struggling	-13356
▁capabilities	-13357
▁neuroscience	-13358
▁collaborative	-13359
ES	-13360
],	-13361
▁万	-13362
▁走	-13363
三明	-13364
不大	-13365
不如	-13366
与你	-13367
几次	-13368
十字	-13369
及其	-13370
叫它	-13371
唱歌	-13372
导师	-13373
带给	-13374
幸存	-13375
曲子	-13376
极大	-13377
桌上	-13378
正式	-13379
每秒	-13380
水里	-13381
汉堡	-13382
涂鸦	-13383
消极	-13384
滑板	-13385
秩序	-13386
线路	-13387
脸上	-13388
衰老	-13389
说出	-13390
输出	-13391
随意	-13392
震动	-13393
hal	-13394
obs	-13395
rid	-13396
sch	-13397
sey	-13398
▁变得	-13399
▁媒体	-13400
▁是从	-13401
▁记录	-13402
也同样	-13403
他们都	-13404
会产生	-13405
你没有	-13406
具体的	-13407
失败的	-13408
很奇怪	-13409
很高兴	-13410
我想到	-13411
投资者	-13412
有用的	-13413
条件下	-13414
爱尔兰	-13415
的关键	-13416
的最后	-13417
自己是	-13418
行为的	-13419
觉得这	-13420
认为这	-13421
达到了	-13422
还不够	-13423
born	-13424
fold	-13425
▁800	-13426
▁Bel	-13427
▁Que	-13428
▁但同时	-13429
▁其他的	-13430
▁可能会	-13431
▁是不是	-13432
无处不在	-13433
该怎么办	-13434
这种方法	-13435
eller	-13436
enger	-13437
igned	-13438
ribly	-13439
▁Ford	-13440
▁bats	-13441
▁clim	-13442
▁soup	-13443
▁tech	-13444
▁toys	-13445
▁我们只是	-13446
othing	-13447
▁actor	-13448
▁fiber	-13449
▁glaci	-13450
▁monit	-13451
▁pione	-13452
▁rocks	-13453
▁sharp	-13454
▁spark	-13455
▁Rwanda	-13456
▁Soviet	-13457
▁adding	-13458
▁crying	-13459
▁expans	-13460
▁lawyer	-13461
▁rescue	-13462
▁senior	-13463
▁served	-13464
American	-13465
▁Nations	-13466
▁comprom	-13467
▁hanging	-13468
▁visited	-13469
▁astronom	-13470
▁database	-13471
▁fabulous	-13472
▁confident	-13473
▁dependent	-13474
▁elephants	-13475
▁forgotten	-13476
▁gathering	-13477
▁strangers	-13478
forestation	-13479
▁biologists	-13480
▁dictionary	-13481
▁permission	-13482
▁improvement	-13483
▁philanthrop	-13484
▁transmission	-13485
He	-13486
va	-13487
中产	-13488
之路	-13489
买了	-13490
修建	-13491
入了	-13492
加纳	-13493
协助	-13494
印第	-13495
危害	-13496
反抗	-13497
发掘	-13498
周末	-13499
奶奶	-13500
尼尔	-13501
岗位	-13502
幼儿	-13503
廉价	-13504
延续	-13505
提问	-13506
搜集	-13507
数百	-13508
斯拉	-13509
智力	-13510
殖民	-13511
洗衣	-13512
玛丽	-13513
现有	-13514
理所	-13515
画画	-13516
线索	-13517
耶稣	-13518
肝脏	-13519
觅食	-13520
议会	-13521
讲讲	-13522
词语	-13523
迁移	-13524
颠覆	-13525
Wow	-13526
ava	-13527
cap	-13528
iop	-13529
oli	-13530
▁MT	-13531
▁Ok	-13532
▁Sl	-13533
▁位于	-13534
▁它就	-13535
▁永远	-13536
一分钟	-13537
三明治	-13538
为一个	-13539
众所周	-13540
包含了	-13541
在他的	-13542
它们会	-13543
希格斯	-13544
我当时	-13545
我是个	-13546
是真的	-13547
来到了	-13548
的一次	-13549
的音乐	-13550
看到它	-13551
给人们	-13552
设计了	-13553
还需要	-13554
那些在	-13555
重要性	-13556
1960	-13557
rian	-13558
west	-13559
▁Mom	-13560
▁Sus	-13561
▁bio	-13562
▁不管是	-13563
▁也没有	-13564
▁听起来	-13565
▁我还是	-13566
▁是什么	-13567
▁更多的	-13568
▁过去的	-13569
另一方面	-13570
就是这么	-13571
我们看到	-13572
生活中的	-13573
看起来像	-13574
这件事情	-13575
这是一种	-13576
amine	-13577
izoph	-13578
▁Gand	-13579
▁Hill	-13580
▁Josh	-13581
▁ages	-13582
▁bars	-13583
▁clar	-13584
▁quit	-13585
▁rent	-13586
▁他们需要	-13587
▁所以现在	-13588
izarre	-13589
makers	-13590
mingly	-13591
▁Cambr	-13592
▁array	-13593
▁bears	-13594
▁colum	-13595
▁edges	-13596
▁jelly	-13597
▁Saturn	-13598
▁chairs	-13599
▁observ	-13600
▁General	-13601
▁shelter	-13602
▁wheelch	-13603
▁copyright	-13604
▁dimension	-13605
▁musicians	-13606
▁suggested	-13607
▁operations	-13608
▁originally	-13609
▁resilience	-13610
▁satellites	-13611
▁observation	-13612
上说	-13613
上述	-13614
不住	-13615
不及	-13616
乌鸦	-13617
书中	-13618
以此	-13619
体型	-13620
候选	-13621
做着	-13622
动手	-13623
动脉	-13624
双方	-13625
叔叔	-13626
垂直	-13627
处境	-13628
对它	-13629
封面	-13630
恶心	-13631
所见	-13632
排除	-13633
放松	-13634
文献	-13635
斯科	-13636
板球	-13637
沉浸	-13638
没能	-13639
由此	-13640
甲烷	-13641
电流	-13642
硬币	-13643
脉冲	-13644
脑子	-13645
脸书	-13646
节省	-13647
见面	-13648
议员	-13649
这也	-13650
零和	-13651
ean	-13652
ixt	-13653
opy	-13654
▁Up	-13655
▁公司	-13656
▁制作	-13657
▁建造	-13658
▁我跟	-13659
▁既然	-13660
▁汽车	-13661
▁注意	-13662
▁理解	-13663
▁观察	-13664
▁让它	-13665
一个大	-13666
三个月	-13667
你就能	-13668
印第安	-13669
取得了	-13670
回来了	-13671
处理器	-13672
孟加拉	-13673
想一想	-13674
我不想	-13675
排放量	-13676
有一位	-13677
用它来	-13678
的人数	-13679
的人都	-13680
的价格	-13681
网络的	-13682
认为的	-13683
转移到	-13684
追溯到	-13685
避免的	-13686
问他们	-13687
面临着	-13688
When	-13689
bits	-13690
emen	-13691
fall	-13692
izer	-13693
liam	-13694
ulum	-13695
▁'80	-13696
▁人们在	-13697
▁但是他	-13698
▁和其他	-13699
▁真正的	-13700
▁结果是	-13701
▁而且它	-13702
全球变暖	-13703
公共空间	-13704
巴勒斯坦	-13705
开始思考	-13706
我们人类	-13707
所有东西	-13708
电视节目	-13709
看起来很	-13710
这个过程	-13711
这些孩子	-13712
elled	-13713
field	-13714
▁2008	-13715
▁Sund	-13716
▁alco	-13717
▁carr	-13718
▁leaf	-13719
▁sulf	-13720
▁tear	-13721
▁tong	-13722
▁作为一名	-13723
▁我有一个	-13724
arents	-13725
iology	-13726
▁Carol	-13727
▁Prize	-13728
▁River	-13729
▁relax	-13730
▁stops	-13731
▁threw	-13732
▁我们称之为	-13733
▁actors	-13734
▁arrive	-13735
▁barrel	-13736
▁buried	-13737
▁caring	-13738
▁extrem	-13739
▁nurses	-13740
▁regret	-13741
▁reveal	-13742
▁silent	-13743
▁victim	-13744
▁reports	-13745
▁revenue	-13746
▁keyboard	-13747
▁leverage	-13748
▁accidents	-13749
▁daughters	-13750
▁physicist	-13751
▁radically	-13752
▁ecosystems	-13753
▁underlying	-13754
▁chimpanzees	-13755
▁agricultural	-13756
▁biodiversity	-13757
▁successfully	-13758
▁representation	-13759
▁个	-13760
▁地	-13761
两周	-13762
中去	-13763
他就	-13764
仿生	-13765
修改	-13766
共识	-13767
冠军	-13768
前提	-13769
前景	-13770
加强	-13771
单元	-13772
参考	-13773
号码	-13774
四种	-13775
城镇	-13776
始于	-13777
密切	-13778
对其	-13779
尸体	-13780
当初	-13781
彼得	-13782
微博	-13783
必需	-13784
戈尔	-13785
揭示	-13786
旅途	-13787
是指	-13788
有毒	-13789
楼梯	-13790
欧盟	-13791
海地	-13792
灵长	-13793
男女	-13794
盖茨	-13795
相处	-13796
称呼	-13797
突变	-13798
粗糙	-13799
网膜	-13800
节约	-13801
bru	-13802
udi	-13803
▁保护	-13804
▁此时	-13805
▁海洋	-13806
▁现代	-13807
▁真是	-13808
▁马克	-13809
一本书	-13810
不仅是	-13811
之后的	-13812
了解的	-13813
事实是	-13814
做出的	-13815
十年前	-13816
地图上	-13817
年时间	-13818
建立起	-13819
建筑物	-13820
我不是	-13821
我而言	-13822
的答案	-13823
表现出	-13824
视网膜	-13825
这个小	-13826
这些是	-13827
里面的	-13828
非政府	-13829
rich	-13830
wind	-13831
▁Det	-13832
▁Hen	-13833
▁aes	-13834
▁ain	-13835
▁ric	-13836
▁sle	-13837
▁unp	-13838
▁仅仅是	-13839
▁发生在	-13840
▁它们会	-13841
▁我们再	-13842
▁然后把	-13843
做了一些	-13844
再生能源	-13845
工作人员	-13846
应用程序	-13847
我是一个	-13848
的机器人	-13849
解决办法	-13850
这个东西	-13851
atrix	-13852
iment	-13853
maker	-13854
ostic	-13855
▁Flor	-13856
▁Long	-13857
▁Sing	-13858
▁boss	-13859
▁mate	-13860
▁pige	-13861
▁publ	-13862
▁sits	-13863
▁我不得不	-13864
做到这一点	-13865
esthes	-13866
itudes	-13867
▁4,000	-13868
▁burst	-13869
▁gotta	-13870
▁plain	-13871
▁silly	-13872
viously	-13873
▁Global	-13874
▁domain	-13875
▁landed	-13876
▁partly	-13877
▁pushed	-13878
▁Russian	-13879
▁Through	-13880
▁bizarre	-13881
▁circles	-13882
▁elected	-13883
▁emerged	-13884
▁ethical	-13885
▁liberal	-13886
▁origami	-13887
▁session	-13888
▁soldier	-13889
▁writers	-13890
▁answered	-13891
▁articles	-13892
▁oxytocin	-13893
▁theories	-13894
▁unlikely	-13895
▁highlight	-13896
▁nutrition	-13897
▁positions	-13898
▁qualities	-13899
▁frustrated	-13900
▁industries	-13901
▁mechanisms	-13902
▁motivation	-13903
▁reputation	-13904
▁programming	-13905
▁pharmaceutical	-13906
ER	-13907
LA	-13908
OK	-13909
].	-13910
▁便	-13911
▁古	-13912
▁进	-13913
不论	-13914
业余	-13915
交叉	-13916
付诸	-13917
匿名	-13918
华尔	-13919
名单	-13920
和人	-13921
夸张	-13922
对应	-13923
已有	-13924
得上	-13925
成人	-13926
我曾	-13927
投影	-13928
拇指	-13929
摩托	-13930
文本	-13931
显现	-13932
气泡	-13933
洗手	-13934
疯了	-13935
真空	-13936
笔钱	-13937
米的	-13938
粪便	-13939
肉眼	-13940
肤色	-13941
自私	-13942
账户	-13943
首席	-13944
骆驼	-13945
250	-13946
ali	-13947
pox	-13948
▁'9	-13949
▁CD	-13950
▁一只	-13951
▁他就	-13952
▁代表	-13953
▁但那	-13954
▁做出	-13955
▁允许	-13956
▁国际	-13957
▁学校	-13958
▁有了	-13959
▁照片	-13960
▁老师	-13961
▁自由	-13962
一切都	-13963
不一定	-13964
产品的	-13965
关注的	-13966
和社会	-13967
大西洋	-13968
太好了	-13969
好奇心	-13970
怎么说	-13971
想法是	-13972
我真的	-13973
故事的	-13974
无人机	-13975
来源于	-13976
环境下	-13977
的材料	-13978
的选择	-13979
获得的	-13980
项目的	-13981
NASA	-13982
atar	-13983
conf	-13984
evin	-13985
xual	-13986
▁700	-13987
▁Out	-13988
▁gro	-13989
▁一开始	-13990
▁人类的	-13991
▁他们被	-13992
▁你不会	-13993
▁另一种	-13994
▁因为她	-13995
▁地球上	-13996
▁如果有	-13997
▁它们在	-13998
▁就是说	-13999
▁很显然	-14000
▁我们被	-14001
▁我并不	-14002
▁我是个	-14003
▁是如何	-14004
▁这些都	-14005
到另一个	-14006
它是一个	-14007
怎样才能	-14008
精神分裂	-14009
职业生涯	-14010
这些照片	-14011
aches	-14012
adays	-14013
elson	-14014
oding	-14015
otion	-14016
riger	-14017
ville	-14018
▁Gore	-14019
▁Tony	-14020
▁cats	-14021
▁mail	-14022
▁neck	-14023
▁因为如果	-14024
▁如果没有	-14025
▁我们通过	-14026
成千上万的	-14027
encing	-14028
iatric	-14029
market	-14030
mented	-14031
▁Italy	-14032
▁Ocean	-14033
▁algae	-14034
▁joint	-14035
▁shame	-14036
▁wired	-14037
▁所以如果你	-14038
athered	-14039
▁Nature	-14040
▁recept	-14041
▁robust	-14042
▁sacred	-14043
▁simult	-14044
izophren	-14045
▁bubbles	-14046
▁deliber	-14047
▁hackers	-14048
▁hitting	-14049
▁regener	-14050
▁sensory	-14051
▁traject	-14052
▁Atlantic	-14053
▁refriger	-14054
▁suffered	-14055
▁depressed	-14056
▁immediate	-14057
▁objective	-14058
▁predicted	-14059
▁responses	-14060
▁autonomous	-14061
▁disappoint	-14062
▁identified	-14063
▁inevitable	-14064
▁proportion	-14065
▁astonishing	-14066
▁probability	-14067
▁breakthrough	-14068
▁participants	-14069
▁demonstration	-14070
IN	-14071
▁安	-14072
▁心	-14073
▁约	-14074
一间	-14075
不动	-14076
与我	-14077
两位	-14078
二战	-14079
亲自	-14080
仍旧	-14081
低于	-14082
你好	-14083
你对	-14084
出口	-14085
分别	-14086
反而	-14087
可视	-14088
吃饭	-14089
回归	-14090
圆形	-14091
坐下	-14092
声波	-14093
多德	-14094
失业	-14095
引领	-14096
强制	-14097
得起	-14098
怀特	-14099
总会	-14100
抉择	-14101
明年	-14102
次的	-14103
死的	-14104
海报	-14105
海滩	-14106
状的	-14107
短短	-14108
立法	-14109
致的	-14110
草原	-14111
藏在	-14112
虐待	-14113
蟑螂	-14114
要花	-14115
诠释	-14116
逃离	-14117
遇见	-14118
里达	-14119
风景	-14120
ban	-14121
bar	-14122
eda	-14123
hum	-14124
▁JH	-14125
▁以前	-14126
▁坐在	-14127
▁女人	-14128
▁并非	-14129
▁当今	-14130
▁每当	-14131
一般的	-14132
也一样	-14133
从这里	-14134
你想要	-14135
副作用	-14136
吸引力	-14137
导致了	-14138
就有了	-14139
开始在	-14140
我想说	-14141
拥有了	-14142
最高的	-14143
每天都	-14144
没有被	-14145
深刻的	-14146
理解的	-14147
癌症的	-14148
种类的	-14149
称它为	-14150
能够在	-14151
那一刻	-14152
abil	-14153
fast	-14154
▁'70	-14155
▁'90	-14156
▁Aug	-14157
▁Far	-14158
▁Isn	-14159
▁Sur	-14160
▁lon	-14161
▁一个人	-14162
▁女士们	-14163
▁机器人	-14164
▁答案是	-14165
一个国家	-14166
你知道的	-14167
全世界的	-14168
宗教信仰	-14169
我们想要	-14170
显而易见	-14171
正在发生	-14172
现在已经	-14173
的世界里	-14174
知道如何	-14175
组成部分	-14176
给了我们	-14177
至关重要	-14178
谢谢大家	-14179
opard	-14180
owers	-14181
▁Move	-14182
▁Rome	-14183
▁Star	-14184
▁butt	-14185
▁cord	-14186
▁cous	-14187
▁crew	-14188
▁defe	-14189
▁guns	-14190
▁我并不是	-14191
▁没有任何	-14192
▁这些东西	-14193
更重要的是	-14194
erable	-14195
▁Charl	-14196
▁Derek	-14197
▁Jesus	-14198
▁Organ	-14199
▁blame	-14200
▁tribe	-14201
▁wider	-14202
liament	-14203
section	-14204
working	-14205
▁30,000	-14206
▁Should	-14207
▁Turkey	-14208
▁agency	-14209
▁curric	-14210
▁decent	-14211
▁fought	-14212
▁inches	-14213
▁linear	-14214
▁margin	-14215
▁panels	-14216
▁paraly	-14217
▁phosph	-14218
▁richer	-14219
▁rivers	-14220
▁spinal	-14221
▁sticks	-14222
▁tackle	-14223
▁theore	-14224
▁vacuum	-14225
cedented	-14226
▁Florida	-14227
▁Whether	-14228
▁analyze	-14229
▁fastest	-14230
▁females	-14231
▁founded	-14232
▁helpful	-14233
▁involve	-14234
▁artistic	-14235
▁category	-14236
▁colonies	-14237
▁innocent	-14238
▁measures	-14239
▁neurolog	-14240
▁sciences	-14241
▁southern	-14242
▁exception	-14243
▁expanding	-14244
▁ignorance	-14245
▁infection	-14246
▁nutrients	-14247
▁supported	-14248
▁determined	-14249
▁expectancy	-14250
▁remembered	-14251
▁predictions	-14252
▁photographed	-14253
▁architectural	-14254
▁grandchildren	-14255
▁interestingly	-14256
▁取	-14257
▁画	-14258
▁连	-14259
一组	-14260
丛林	-14261
介入	-14262
从我	-14263
列表	-14264
创办	-14265
剑桥	-14266
吃了	-14267
味的	-14268
图的	-14269
多巴	-14270
察觉	-14271
射击	-14272
射线	-14273
废物	-14274
录制	-14275
无穷	-14276
明的	-14277
普及	-14278
术语	-14279
架构	-14280
正面	-14281
泡泡	-14282
深的	-14283
温和	-14284
理智	-14285
盲人	-14286
硅谷	-14287
组建	-14288
终极	-14289
维亚	-14290
肩膀	-14291
能为	-14292
行道	-14293
补充	-14294
跨国	-14295
车库	-14296
这台	-14297
适用	-14298
通用	-14299
造就	-14300
遭到	-14301
重力	-14302
阶层	-14303
音符	-14304
顶部	-14305
飓风	-14306
马达	-14307
195	-14308
bra	-14309
che	-14310
lar	-14311
mod	-14312
rof	-14313
ura	-14314
▁RB	-14315
▁Ty	-14316
▁和我	-14317
▁我爱	-14318
▁显示	-14319
▁语言	-14320
▁说到	-14321
从来没	-14322
做不到	-14323
共同点	-14324
共和党	-14325
关系的	-14326
内心的	-14327
分钟内	-14328
制造出	-14329
可以是	-14330
基督教	-14331
增长的	-14332
大爆炸	-14333
好莱坞	-14334
我去了	-14335
提一下	-14336
放弃了	-14337
有多大	-14338
演讲者	-14339
癌细胞	-14340
的一生	-14341
的女人	-14342
的帮助	-14343
经济的	-14344
结果是	-14345
苏格兰	-14346
过去了	-14347
这里有	-14348
道德的	-14349
2009	-14350
oran	-14351
road	-14352
▁20,	-14353
▁Edu	-14354
▁Eve	-14355
▁Mah	-14356
▁cig	-14357
▁dow	-14358
▁sav	-14359
▁他们对	-14360
▁你看到	-14361
▁再一次	-14362
▁意味着	-14363
为什么会	-14364
会怎么样	-14365
其他国家	-14366
唯一一个	-14367
在过去的	-14368
我在这里	-14369
我的生活	-14370
每个人的	-14371
的孩子们	-14372
enter	-14373
puter	-14374
worth	-14375
▁Give	-14376
▁Jose	-14377
▁dear	-14378
▁stom	-14379
▁vent	-14380
▁我认为这	-14381
bruary	-14382
soever	-14383
▁Titan	-14384
▁foods	-14385
▁roots	-14386
▁skept	-14387
▁stunt	-14388
▁最重要的是	-14389
▁Design	-14390
▁Within	-14391
▁combat	-14392
▁commod	-14393
▁ensure	-14394
▁rarely	-14395
▁Spanish	-14396
▁ceiling	-14397
▁chances	-14398
▁convert	-14399
▁dolphin	-14400
▁enterpr	-14401
▁forming	-14402
▁millenn	-14403
▁washing	-14404
▁February	-14405
▁Somebody	-14406
▁channels	-14407
▁dialogue	-14408
▁figuring	-14409
▁openness	-14410
▁perceive	-14411
▁abilities	-14412
▁adventure	-14413
▁documents	-14414
▁investors	-14415
▁primarily	-14416
▁whatsoever	-14417
▁photography	-14418
▁schizophren	-14419
▁surprisingly	-14420
▁unprecedented	-14421
-3	-14422
42	-14423
▁得	-14424
▁恩	-14425
一支	-14426
不良	-14427
之旅	-14428
冰箱	-14429
几何	-14430
北京	-14431
历山	-14432
古怪	-14433
命名	-14434
头的	-14435
妥协	-14436
宝贝	-14437
戴着	-14438
把钱	-14439
提及	-14440
教练	-14441
新兴	-14442
杰克	-14443
棉花	-14444
注册	-14445
漂浮	-14446
焦点	-14447
疫情	-14448
痕迹	-14449
穿上	-14450
立场	-14451
终点	-14452
股票	-14453
言论	-14454
误解	-14455
路径	-14456
迹象	-14457
选项	-14458
遥控	-14459
锻炼	-14460
首要	-14461
asy	-14462
ati	-14463
enh	-14464
gal	-14465
rag	-14466
▁85	-14467
▁Bo	-14468
▁各位	-14469
▁某些	-14470
▁西方	-14471
▁记住	-14472
▁运用	-14473
不好的	-14474
了一条	-14475
他们也	-14476
低成本	-14477
你觉得	-14478
出色的	-14479
变化的	-14480
可爱的	-14481
可能有	-14482
如此的	-14483
就已经	-14484
帮助你	-14485
帮我们	-14486
总是在	-14487
战争中	-14488
数字化	-14489
最多的	-14490
最新的	-14491
有一条	-14492
的能源	-14493
经历的	-14494
自己在	-14495
艺术品	-14496
讲的是	-14497
银河系	-14498
麦克风	-14499
agos	-14500
ares	-14501
eday	-14502
enly	-14503
kind	-14504
list	-14505
ship	-14506
▁LED	-14507
▁bug	-14508
▁gee	-14509
▁mig	-14510
▁不需要	-14511
▁你也许	-14512
▁可能是	-14513
▁在他们	-14514
▁好消息	-14515
▁并且在	-14516
▁然后是	-14517
你会看到	-14518
就像这样	-14519
所带来的	-14520
有这样的	-14521
研究人员	-14522
这么做了	-14523
野生动物	-14524
gence	-14525
gency	-14526
ician	-14527
ifice	-14528
isons	-14529
ivery	-14530
▁1900	-14531
▁2005	-14532
▁eleg	-14533
▁mode	-14534
▁outs	-14535
▁plug	-14536
▁我们怎么	-14537
▁我第一次	-14538
▁这样一来	-14539
active	-14540
semble	-14541
ughter	-14542
▁Power	-14543
▁doors	-14544
▁elite	-14545
▁items	-14546
▁nurse	-14547
▁spray	-14548
▁tempt	-14549
angible	-14550
▁August	-14551
▁convey	-14552
▁regime	-14553
▁settle	-14554
▁shaped	-14555
▁surviv	-14556
▁widely	-14557
▁arrange	-14558
▁elderly	-14559
▁failing	-14560
▁immense	-14561
▁tissues	-14562
▁climbing	-14563
▁confused	-14564
▁drawings	-14565
▁proposed	-14566
▁stereoty	-14567
▁Obviously	-14568
▁physician	-14569
▁hypothesis	-14570
▁mysterious	-14571
▁simulation	-14572
▁traditions	-14573
▁constructed	-14574
▁experimental	-14575
▁instructions	-14576
▁intervention	-14577
▁unbelievable	-14578
▁universities	-14579
▁institutional	-14580
▁八	-14581
▁史	-14582
▁红	-14583
▁美	-14584
一堆	-14585
不堪	-14586
不然	-14587
两条	-14588
主人	-14589
举动	-14590
会上	-14591
假肢	-14592
光的	-14593
克的	-14594
到你	-14595
制药	-14596
卓越	-14597
发行	-14598
向下	-14599
哥哥	-14600
图上	-14601
图画	-14602
塔利	-14603
大厦	-14604
峡谷	-14605
应付	-14606
引人	-14607
把握	-14608
挂在	-14609
搞笑	-14610
支出	-14611
救助	-14612
方形	-14613
暴露	-14614
杀手	-14615
林肯	-14616
校园	-14617
波斯	-14618
滥用	-14619
热量	-14620
用作	-14621
磁场	-14622
福特	-14623
纸上	-14624
结核	-14625
融化	-14626
西兰	-14627
诉讼	-14628
谎言	-14629
转动	-14630
过头	-14631
通往	-14632
钥匙	-14633
mal	-14634
▁Os	-14635
▁他被	-14636
▁但当	-14637
▁她是	-14638
▁连接	-14639
不愿意	-14640
两件事	-14641
存在了	-14642
学生的	-14643
就在于	-14644
就是我	-14645
工作室	-14646
应用到	-14647
弄明白	-14648
引起了	-14649
把所有	-14650
抑郁症	-14651
是否有	-14652
更高的	-14653
来这里	-14654
每小时	-14655
玩游戏	-14656
的儿童	-14657
结束后	-14658
罗里达	-14659
脑子里	-14660
自由的	-14661
英格兰	-14662
见过的	-14663
跟我们	-14664
都是在	-14665
长大的	-14666
食物链	-14667
马拉松	-14668
高科技	-14669
agen	-14670
ague	-14671
ding	-14672
esis	-14673
four	-14674
ifer	-14675
omin	-14676
rats	-14677
viol	-14678
▁194	-14679
▁Cra	-14680
▁Cur	-14681
▁Met	-14682
▁Sir	-14683
▁Tes	-14684
▁Unt	-14685
▁Wow	-14686
▁aqu	-14687
▁cas	-14688
▁不同的	-14689
▁但它们	-14690
▁在座的	-14691
▁我们先	-14692
▁最大的	-14693
▁来自于	-14694
▁突然间	-14695
▁这正是	-14696
举个例子	-14697
全球性的	-14698
刚刚开始	-14699
地球上的	-14700
墨西哥湾	-14701
我意识到	-14702
有更多的	-14703
统计数据	-14704
这是什么	-14705
clock	-14706
itous	-14707
oning	-14708
▁Bell	-14709
▁None	-14710
▁adap	-14711
▁cott	-14712
▁intr	-14713
▁orph	-14714
▁sink	-14715
▁tone	-14716
到底是什么	-14717
engine	-14718
urable	-14719
▁agent	-14720
▁bucks	-14721
▁civic	-14722
▁genoc	-14723
▁owner	-14724
▁spont	-14725
▁weeke	-14726
▁顺便说一下	-14727
▁Mother	-14728
▁Square	-14729
▁garage	-14730
▁golden	-14731
▁intrig	-14732
▁killer	-14733
▁pursue	-14734
▁strike	-14735
andering	-14736
fficient	-14737
interest	-14738
▁alcohol	-14739
▁beating	-14740
▁dressed	-14741
▁fragile	-14742
▁methane	-14743
▁minimum	-14744
▁printer	-14745
▁serving	-14746
▁torture	-14747
▁accounts	-14748
▁agencies	-14749
▁cartoons	-14750
▁crossing	-14751
▁detailed	-14752
▁homeless	-14753
▁mosquito	-14754
▁precious	-14755
▁reducing	-14756
▁shopping	-14757
▁smallpox	-14758
▁strongly	-14759
▁surfaces	-14760
▁Cambridge	-14761
▁broadcast	-14762
▁gradually	-14763
▁primitive	-14764
▁additional	-14765
▁difficulty	-14766
▁explaining	-14767
▁terrorists	-14768
▁wheelchair	-14769
▁computation	-14770
▁description	-14771
▁contemporary	-14772
8%	-14773
An	-14774
▁&	-14775
三天	-14776
丢失	-14777
之地	-14778
书的	-14779
产量	-14780
人是	-14781
仍在	-14782
从头	-14783
兰经	-14784
冰层	-14785
加以	-14786
十万	-14787
发作	-14788
受过	-14789
叙述	-14790
呼吁	-14791
和她	-14792
坏的	-14793
够了	-14794
子和	-14795
寒冷	-14796
岛上	-14797
征服	-14798
恶化	-14799
悬崖	-14800
拉德	-14801
排序	-14802
接到	-14803
摩尔	-14804
日益	-14805
柏林	-14806
演唱	-14807
演说	-14808
特律	-14809
琼斯	-14810
电线	-14811
病例	-14812
的车	-14813
看似	-14814
空白	-14815
线条	-14816
蛋糕	-14817
触及	-14818
说不	-14819
足迹	-14820
过时	-14821
造出	-14822
问你	-14823
骨架	-14824
鸿沟	-14825
120	-14826
ima	-14827
mma	-14828
ona	-14829
see	-14830
▁id	-14831
▁ub	-14832
▁保持	-14833
▁它被	-14834
▁实际	-14835
▁当地	-14836
▁有的	-14837
▁病人	-14838
▁确保	-14839
▁这只	-14840
下一步	-14841
下降了	-14842
两个月	-14843
任何事	-14844
你们都	-14845
做了一	-14846
停车场	-14847
像一个	-14848
十年里	-14849
去了解	-14850
发明的	-14851
大型的	-14852
女人的	-14853
工程学	-14854
帮助我	-14855
开发的	-14856
成年人	-14857
我只是	-14858
战争的	-14859
接受的	-14860
方式来	-14861
是不可	-14862
独一无	-14863
百万人	-14864
的家伙	-14865
的改变	-14866
的理念	-14867
的社区	-14868
的美国	-14869
那些有	-14870
free	-14871
iens	-14872
oral	-14873
yard	-14874
yrus	-14875
▁Put	-14876
▁Sal	-14877
▁Tim	-14878
▁Was	-14879
▁cub	-14880
▁irr	-14881
▁lit	-14882
▁upd	-14883
▁他们能	-14884
▁他们还	-14885
▁和一个	-14886
▁这对于	-14887
什么地方	-14888
从根本上	-14889
合作伙伴	-14890
工业革命	-14891
这个概念	-14892
这个话题	-14893
allow	-14894
anned	-14895
opath	-14896
stone	-14897
▁Beij	-14898
▁Coun	-14899
▁Dece	-14900
▁Mill	-14901
▁Walk	-14902
▁bell	-14903
▁bend	-14904
▁meal	-14905
▁odds	-14906
▁rope	-14907
▁sole	-14908
▁triv	-14909
▁它是一种	-14910
▁就是我们	-14911
▁Moore	-14912
▁advoc	-14913
▁bored	-14914
▁intim	-14915
▁marry	-14916
▁nerve	-14917
▁outer	-14918
▁safer	-14919
▁tends	-14920
▁tooth	-14921
YouTube	-14922
ference	-14923
looking	-14924
related	-14925
▁Arctic	-14926
▁Things	-14927
▁cheese	-14928
▁compos	-14929
▁enthus	-14930
▁mining	-14931
▁occurs	-14932
▁shrink	-14933
▁tracks	-14934
▁adopted	-14935
▁enables	-14936
▁imagery	-14937
▁magical	-14938
▁promote	-14939
▁selfish	-14940
▁statist	-14941
▁wealthy	-14942
▁December	-14943
▁Minister	-14944
▁delivery	-14945
▁educated	-14946
▁graphics	-14947
▁airplanes	-14948
▁expansion	-14949
▁expertise	-14950
▁fortunate	-14951
▁instantly	-14952
▁procedure	-14953
▁curriculum	-14954
▁disability	-14955
▁photographer	-14956
CO	-14957
▁传	-14958
▁各	-14959
▁哈	-14960
一层	-14961
也被	-14962
五百	-14963
交响	-14964
从没	-14965
倾斜	-14966
全面	-14967
分割	-14968
分支	-14969
制品	-14970
加仑	-14971
右手	-14972
呆在	-14973
善良	-14974
塞俄	-14975
外国	-14976
外科	-14977
头痛	-14978
妹妹	-14979
封信	-14980
小学	-14981
带回	-14982
异的	-14983
弹奏	-14984
微小	-14985
拿走	-14986
提示	-14987
此类	-14988
气的	-14989
猜想	-14990
电极	-14991
置于	-14992
要是	-14993
要用	-14994
论点	-14995
财务	-14996
逆转	-14997
逐步	-14998
遥远	-14999
饼干	-15000
鲁士	-15001
黑帮	-15002
,20	-15003
RNA	-15004
aby	-15005
col	-15006
eyn	-15007
▁几年	-15008
▁加上	-15009
▁欧洲	-15010
▁石油	-15011
▁神经	-15012
▁经常	-15013
一点儿	-15014
不那么	-15015
人们对	-15016
你不会	-15017
可以把	-15018
开始做	-15019
是来自	-15020
普通人	-15021
的开始	-15022
的机器	-15023
的现象	-15024
知道了	-15025
空间的	-15026
表面上	-15027
观察到	-15028
角度看	-15029
解决的	-15030
让这些	-15031
青春期	-15032
2006	-15033
ails	-15034
lend	-15035
orus	-15036
outs	-15037
ropy	-15038
▁Bet	-15039
▁Mag	-15040
▁Ray	-15041
▁Sud	-15042
▁Tor	-15043
▁之所以	-15044
▁事实是	-15045
▁于是他	-15046
▁你怎么	-15047
▁现在是	-15048
▁而那些	-15049
一样东西	-15050
不幸的是	-15051
使用这些	-15052
塞俄比亚	-15053
展示一下	-15054
很有可能	-15055
最基本的	-15056
有史以来	-15057
理所当然	-15058
站在这里	-15059
还有一些	-15060
这样一种	-15061
antom	-15062
asses	-15063
chron	-15064
gines	-15065
inson	-15066
iogen	-15067
umble	-15068
▁Eric	-15069
▁dies	-15070
▁gaps	-15071
▁gods	-15072
▁grat	-15073
▁irre	-15074
▁mood	-15075
▁wedd	-15076
▁whis	-15077
▁我们将会	-15078
▁我们把它	-15079
▁那是因为	-15080
▁March	-15081
▁audio	-15082
▁drone	-15083
▁owned	-15084
▁这就是我的	-15085
otherap	-15086
unction	-15087
▁Ethiop	-15088
▁assets	-15089
▁export	-15090
▁orient	-15091
▁poster	-15092
▁tumors	-15093
▁upside	-15094
▁waters	-15095
▁affects	-15096
▁charges	-15097
▁demands	-15098
▁engines	-15099
▁leather	-15100
▁miracle	-15101
▁persist	-15102
▁portion	-15103
▁request	-15104
▁smarter	-15105
▁Northern	-15106
▁covering	-15107
▁currency	-15108
▁distingu	-15109
▁invested	-15110
▁reliable	-15111
▁skeleton	-15112
▁substant	-15113
▁throwing	-15114
▁versions	-15115
▁diagnosis	-15116
▁gentleman	-15117
▁ownership	-15118
▁influenced	-15119
▁translated	-15120
▁authorities	-15121
▁demographic	-15122
▁genetically	-15123
▁uncertainty	-15124
▁–	-15125
▁某	-15126
一篇	-15127
不被	-15128
专辑	-15129
中文	-15130
举起	-15131
从前	-15132
以南	-15133
写下	-15134
出色	-15135
分为	-15136
加快	-15137
十个	-15138
半球	-15139
卡片	-15140
同于	-15141
和水	-15142
唱片	-15143
国防	-15144
孩童	-15145
家中	-15146
家们	-15147
尼克	-15148
广阔	-15149
当前	-15150
想让	-15151
报导	-15152
指责	-15153
捕鱼	-15154
排名	-15155
撒谎	-15156
放下	-15157
教科	-15158
无可	-15159
无需	-15160
早已	-15161
有利	-15162
有害	-15163
有很	-15164
来找	-15165
桥梁	-15166
模块	-15167
比我	-15168
海水	-15169
清醒	-15170
牛顿	-15171
特里	-15172
状物	-15173
瞄准	-15174
砍伐	-15175
职位	-15176
胰岛	-15177
脊椎	-15178
说起	-15179
诸如	-15180
货物	-15181
返回	-15182
追随	-15183
那条	-15184
陆地	-15185
马路	-15186
高于	-15187
Who	-15188
hea	-15189
mat	-15190
sun	-15191
uan	-15192
▁3.	-15193
▁但她	-15194
▁发生	-15195
▁基本	-15196
▁婴儿	-15197
▁当它	-15198
▁往往	-15199
▁我为	-15200
▁至于	-15201
▁达到	-15202
▁针对	-15203
事情的	-15204
从哪里	-15205
像我们	-15206
全球性	-15207
准确的	-15208
到那里	-15209
发现在	-15210
埃博拉	-15211
已经是	-15212
建立的	-15213
接触到	-15214
数据的	-15215
最初的	-15216
来进行	-15217
此之外	-15218
的决定	-15219
的知识	-15220
社区的	-15221
程度的	-15222
纽约的	-15223
超过了	-15224
黄色的	-15225
arsh	-15226
▁190	-15227
▁350	-15228
▁Str	-15229
▁lap	-15230
▁互联网	-15231
▁但这个	-15232
▁你就能	-15233
▁许多人	-15234
▁这并不	-15235
一无所知	-15236
一系列的	-15237
与众不同	-15238
中的一些	-15239
但是我们	-15240
做了很多	-15241
利用这些	-15242
参与其中	-15243
在我看来	-15244
大部分人	-15245
拥有一个	-15246
诸如此类	-15247
采取行动	-15248
Where	-15249
anged	-15250
essor	-15251
haust	-15252
reens	-15253
stage	-15254
▁2012	-15255
▁Comp	-15256
▁Hans	-15257
▁Play	-15258
▁Rick	-15259
▁cong	-15260
▁gate	-15261
▁pigs	-15262
▁sett	-15263
▁suck	-15264
▁synd	-15265
▁以及其他	-15266
▁所有人都	-15267
▁这个世界	-15268
非常简单的	-15269
atever	-15270
employ	-15271
▁2000,	-15272
▁Trans	-15273
▁downt	-15274
▁fraud	-15275
▁indig	-15276
▁proto	-15277
▁steal	-15278
▁trash	-15279
▁在接下来的	-15280
inarily	-15281
▁Howard	-15282
▁binary	-15283
▁ending	-15284
▁headed	-15285
▁rubber	-15286
▁shrimp	-15287
▁skelet	-15288
▁stroke	-15289
▁thresh	-15290
▁tongue	-15291
▁upload	-15292
▁volcan	-15293
▁我们可以看到	-15294
▁这也是为什么	-15295
▁Council	-15296
▁Indians	-15297
▁fortune	-15298
▁officer	-15299
▁prepare	-15300
▁routine	-15301
▁sisters	-15302
▁slavery	-15303
▁clothing	-15304
▁fraction	-15305
▁gathered	-15306
▁improved	-15307
▁judgment	-15308
▁laughing	-15309
▁remained	-15310
▁tendency	-15311
▁strategic	-15312
▁approaches	-15313
▁correspond	-15314
▁facilities	-15315
▁prosperity	-15316
▁competitive	-15317
▁exponential	-15318
▁translation	-15319
▁deforestation	-15320
3%	-15321
?」	-15322
▁弗	-15323
▁找	-15324
▁按	-15325
不信	-15326
不已	-15327
两千	-15328
中所	-15329
作曲	-15330
取出	-15331
外线	-15332
头部	-15333
好多	-15334
年到	-15335
恶劣	-15336
感动	-15337
我没	-15338
手提	-15339
拉罕	-15340
推断	-15341
推荐	-15342
斯顿	-15343
旅馆	-15344
明星	-15345
春天	-15346
是吗	-15347
村子	-15348
橄榄	-15349
死刑	-15350
水果	-15351
注重	-15352
消化	-15353
率的	-15354
直径	-15355
船只	-15356
荒谬	-15357
起到	-15358
酷的	-15359
问了	-15360
高达	-15361
40%	-15362
elf	-15363
kin	-15364
net	-15365
ugg	-15366
uty	-15367
yal	-15368
▁28	-15369
▁Ap	-15370
▁RS	-15371
▁rh	-15372
▁也能	-15373
▁身体	-15374
不容易	-15375
中国人	-15376
为你们	-15377
为基础	-15378
也不能	-15379
人心的	-15380
从来不	-15381
会不会	-15382
区域的	-15383
华尔街	-15384
原始的	-15385
去理解	-15386
参加了	-15387
和其它	-15388
和美国	-15389
固定的	-15390
外星人	-15391
如此之	-15392
实现了	-15393
实际的	-15394
对不对	-15395
市场的	-15396
底特律	-15397
把一个	-15398
是他们	-15399
有人说	-15400
没问题	-15401
痴呆症	-15402
的出现	-15403
的成果	-15404
科学和	-15405
第二次	-15406
给你的	-15407
能不能	-15408
要做的	-15409
见到了	-15410
这样说	-15411
cons	-15412
cost	-15413
thur	-15414
▁Den	-15415
▁dim	-15416
▁les	-15417
▁nom	-15418
▁从一个	-15419
▁他是个	-15420
▁只需要	-15421
▁我以为	-15422
▁我看着	-15423
▁然后就	-15424
▁而这是	-15425
▁那我们	-15426
▁那里的	-15427
一件事情	-15428
他们没有	-15429
就是这个	-15430
的大部分	-15431
这部电影	-15432
Chris	-15433
anzan	-15434
uther	-15435
▁2050	-15436
▁Same	-15437
▁Tell	-15438
▁bask	-15439
▁blah	-15440
▁clay	-15441
▁dive	-15442
▁dung	-15443
▁iPod	-15444
▁loan	-15445
▁lone	-15446
▁prol	-15447
▁rice	-15448
▁tsun	-15449
▁tune	-15450
▁但我认为	-15451
▁幸运的是	-15452
▁现在我要	-15453
▁还有很多	-15454
改变我们的	-15455
是什么意思	-15456
是很重要的	-15457
iences	-15458
▁Henry	-15459
▁guard	-15460
▁loans	-15461
▁pairs	-15462
▁suspe	-15463
▁valid	-15464
▁让我们看看	-15465
angered	-15466
▁Arabic	-15467
▁Tanzan	-15468
▁beaten	-15469
▁breaks	-15470
▁burden	-15471
▁butter	-15472
▁eradic	-15473
▁errors	-15474
▁jumped	-15475
▁merely	-15476
▁recipe	-15477
▁trains	-15478
▁voting	-15479
esthesia	-15480
▁Johnson	-15481
▁analogy	-15482
▁closing	-15483
▁garbage	-15484
▁mindset	-15485
▁paradox	-15486
▁restore	-15487
▁uniform	-15488
▁generous	-15489
▁mobility	-15490
▁optimism	-15491
▁preserve	-15492
▁purposes	-15493
▁classical	-15494
▁conducted	-15495
▁detection	-15496
▁glamorous	-15497
▁initially	-15498
▁investing	-15499
▁substance	-15500
▁attractive	-15501
▁categories	-15502
▁extinction	-15503
▁medication	-15504
▁significantly	-15505
▁straightforward	-15506
,「	-15507
36	-15508
IP	-15509
ga	-15510
ya	-15511
▁伊	-15512
▁路	-15513
▁麦	-15514
。)	-15515
万物	-15516
不必	-15517
不清	-15518
中来	-15519
临时	-15520
人权	-15521
信用	-15522
全是	-15523
冷却	-15524
出自	-15525
分数	-15526
包容	-15527
合同	-15528
后期	-15529
圣战	-15530
在上	-15531
在哪	-15532
地在	-15533
坦桑	-15534
多大	-15535
大胆	-15536
奋斗	-15537
容忍	-15538
尔特	-15539
就此	-15540
局的	-15541
崛起	-15542
帐篷	-15543
庞大	-15544
延长	-15545
性感	-15546
患上	-15547
我用	-15548
持有	-15549
损害	-15550
授权	-15551
故意	-15552
榜样	-15553
氏度	-15554
泄漏	-15555
海啸	-15556
照射	-15557
用品	-15558
留言	-15559
缺失	-15560
诱惑	-15561
跟随	-15562
边境	-15563
远程	-15564
飞到	-15565
All	-15566
asm	-15567
ctu	-15568
oln	-15569
uke	-15570
▁WK	-15571
▁上帝	-15572
▁为此	-15573
▁儿童	-15574
▁共同	-15575
▁基因	-15576
▁太阳	-15577
▁来到	-15578
▁比尔	-15579
▁等等	-15580
▁绝对	-15581
▁要求	-15582
也知道	-15583
先进的	-15584
名字是	-15585
在很多	-15586
女孩儿	-15587
对我的	-15588
屋子里	-15589
年以来	-15590
年开始	-15591
影响了	-15592
成长的	-15593
我们正	-15594
扫描仪	-15595
控制的	-15596
提到了	-15597
方法是	-15598
是多少	-15599
构成的	-15600
清楚地	-15601
电视台	-15602
的一段	-15603
的学校	-15604
的成功	-15605
的来说	-15606
的电影	-15607
的程度	-15608
纪录片	-15609
胰岛素	-15610
舞台上	-15611
认真的	-15612
这两种	-15613
1990	-15614
aded	-15615
agon	-15616
erry	-15617
half	-15618
inux	-15619
izza	-15620
ourt	-15621
rate	-15622
umes	-15623
▁Lou	-15624
▁Ven	-15625
▁boo	-15626
▁dop	-15627
▁gam	-15628
▁ham	-15629
▁sir	-15630
▁tie	-15631
▁在非洲	-15632
▁让人们	-15633
▁这其实	-15634
你看到的	-15635
做什么呢	-15636
大脑皮层	-15637
完全没有	-15638
行动起来	-15639
irect	-15640
lades	-15641
licit	-15642
lings	-15643
ogram	-15644
▁Homo	-15645
▁Make	-15646
▁Moon	-15647
▁Rock	-15648
▁brut	-15649
▁caps	-15650
▁dumb	-15651
▁frog	-15652
▁infl	-15653
▁mild	-15654
▁但是这个	-15655
▁大家知道	-15656
▁我一直在	-15657
▁我在这里	-15658
我们的孩子	-15659
问题的答案	-15660
aching	-15661
aharan	-15662
aneous	-15663
iberia	-15664
incoln	-15665
▁Chile	-15666
▁Dutch	-15667
▁Greek	-15668
▁Santa	-15669
▁altru	-15670
▁armed	-15671
▁gases	-15672
▁kills	-15673
▁panel	-15674
▁pause	-15675
▁queen	-15676
▁sauce	-15677
▁ships	-15678
▁spons	-15679
usiness	-15680
▁Govern	-15681
▁Nelson	-15682
▁absorb	-15683
▁assess	-15684
▁burned	-15685
▁excess	-15686
▁grandp	-15687
▁halluc	-15688
▁prosth	-15689
▁ticket	-15690
otherapy	-15691
quarters	-15692
▁Without	-15693
▁beneath	-15694
▁compete	-15695
▁contrad	-15696
▁fathers	-15697
▁kingdom	-15698
▁percept	-15699
▁phantom	-15700
▁smoking	-15701
▁spreads	-15702
▁staying	-15703
▁threats	-15704
▁applying	-15705
▁asteroid	-15706
▁bathroom	-15707
▁explains	-15708
▁genetics	-15709
▁included	-15710
▁insights	-15711
▁pandemic	-15712
▁prostate	-15713
▁synchron	-15714
▁Banglades	-15715
▁healthier	-15716
▁improving	-15717
▁perceived	-15718
▁realizing	-15719
▁remaining	-15720
▁comparison	-15721
▁impression	-15722
▁newspapers	-15723
▁physicians	-15724
▁profoundly	-15725
▁restaurants	-15726
▁specialized	-15727
▁conservative	-15728
▁experiencing	-15729
▁interpretation	-15730
py	-15731
▁七	-15732
▁占	-15733
不得	-15734
业的	-15735
亚当	-15736
人会	-15737
伸出	-15738
党派	-15739
加工	-15740
卖给	-15741
即时	-15742
发了	-15743
变形	-15744
古典	-15745
听听	-15746
喜悦	-15747
因子	-15748
大厅	-15749
天使	-15750
太太	-15751
对照	-15752
尺度	-15753
帽子	-15754
总体	-15755
愉悦	-15756
成一	-15757
成效	-15758
有力	-15759
来回	-15760
法的	-15761
注视	-15762
煤炭	-15763
牧师	-15764
盈利	-15765
碰巧	-15766
等级	-15767
编织	-15768
蒂芬	-15769
要把	-15770
诸位	-15771
读过	-15772
都将	-15773
重塑	-15774
防御	-15775
降到	-15776
预计	-15777
马丁	-15778
MIT	-15779
fly	-15780
law	-15781
▁33	-15782
▁55	-15783
▁一条	-15784
▁到处	-15785
▁加入	-15786
▁动物	-15787
▁左边	-15788
▁按照	-15789
▁支持	-15790
▁现实	-15791
▁细胞	-15792
个月后	-15793
例来说	-15794
在英国	-15795
完全不	-15796
尤其是	-15797
工作时	-15798
左边的	-15799
年代的	-15800
我曾经	-15801
昂贵的	-15802
更喜欢	-15803
流行病	-15804
电视上	-15805
的文章	-15806
的蚂蚁	-15807
直升机	-15808
联系的	-15809
花费了	-15810
要知道	-15811
迈克尔	-15812
进化论	-15813
away	-15814
edge	-15815
iban	-15816
play	-15817
▁Roy	-15818
▁Sea	-15819
▁sew	-15820
▁sin	-15821
▁他认为	-15822
▁即使是	-15823
▁在他的	-15824
▁我们很	-15825
▁生活在	-15826
一个孩子	-15827
一个朋友	-15828
以及其他	-15829
兄弟姐妹	-15830
我们今天	-15831
所需要的	-15832
还有其他	-15833
都不知道	-15834
ading	-15835
burgh	-15836
capes	-15837
duino	-15838
heart	-15839
▁Blue	-15840
▁Fore	-15841
▁Mach	-15842
▁NGOs	-15843
▁Prot	-15844
▁cake	-15845
▁cert	-15846
▁lean	-15847
▁neoc	-15848
▁nerd	-15849
▁pale	-15850
▁subt	-15851
▁tuna	-15852
▁west	-15853
▁wrap	-15854
▁我们决定	-15855
▁我们相信	-15856
▁还有一些	-15857
mental	-15858
minute	-15859
rained	-15860
ureauc	-15861
▁Gabby	-15862
▁Saudi	-15863
▁Under	-15864
▁anten	-15865
▁badly	-15866
▁brave	-15867
▁energ	-15868
▁incor	-15869
▁troub	-15870
▁ubiqu	-15871
▁我认为这是	-15872
Saharan	-15873
itating	-15874
▁Church	-15875
▁Compan	-15876
▁Sunday	-15877
▁Twenty	-15878
▁acoust	-15879
▁formal	-15880
▁luxury	-15881
▁matrix	-15882
▁Italian	-15883
▁besides	-15884
▁closest	-15885
▁enabled	-15886
▁entropy	-15887
▁glasses	-15888
▁hunting	-15889
▁observe	-15890
▁offices	-15891
▁rolling	-15892
▁scanner	-15893
▁shocked	-15894
▁circuits	-15895
▁entering	-15896
▁magnific	-15897
▁musician	-15898
▁robotics	-15899
▁scenario	-15900
▁anonymous	-15901
▁intuition	-15902
▁assumption	-15903
▁trajectory	-15904
▁approaching	-15905
▁beautifully	-15906
▁journalists	-15907
▁corporations	-15908
▁storytelling	-15909
▁simultaneously	-15910
gi	-15911
sc	-15912
▁教	-15913
▁贝	-15914
上角	-15915
中学	-15916
中被	-15917
人才	-15918
亿的	-15919
俱乐	-15920
借口	-15921
兰克	-15922
剥夺	-15923
加热	-15924
卡路	-15925
又会	-15926
可归	-15927
听着	-15928
吸烟	-15929
子女	-15930
宠物	-15931
审判	-15932
宣称	-15933
对他	-15934
将军	-15935
巴拉	-15936
市民	-15937
帮你	-15938
开头	-15939
开的	-15940
弟弟	-15941
战胜	-15942
所知	-15943
批准	-15944
提前	-15945
支架	-15946
放置	-15947
新型	-15948
更少	-15949
朝着	-15950
木头	-15951
水母	-15952
沙特	-15953
泄露	-15954
演变	-15955
潜能	-15956
环节	-15957
男生	-15958
的脸	-15959
等到	-15960
箱子	-15961
细微	-15962
经费	-15963
绳子	-15964
职责	-15965
脚趾	-15966
航行	-15967
荣誉	-15968
血压	-15969
认出	-15970
赛车	-15971
赢了	-15972
起点	-15973
这将	-15974
重组	-15975
隔绝	-15976
静止	-15977
高峰	-15978
Bay	-15979
HIV	-15980
lor	-15981
two	-15982
▁Er	-15983
▁不可	-15984
▁在于	-15985
▁学生	-15986
▁完成	-15987
▁家庭	-15988
▁系统	-15989
▁至今	-15990
▁记得	-15991
▁这点	-15992
▁那儿	-15993
了出来	-15994
互动的	-15995
什么样	-15996
伯拉罕	-15997
你认为	-15998
做了个	-15999
克萨斯	-16000
关键的	-16001
回答说	-16002
因特网	-16003
在全球	-16004
女孩子	-16005
就好像	-16006
希望的	-16007
所以我	-16008
是一只	-16009
智慧的	-16010
曼德拉	-16011
演讲的	-16012
生产力	-16013
生产的	-16014
生物体	-16015
白色的	-16016
的不是	-16017
的成员	-16018
积极的	-16019
简单地	-16020
脑海中	-16021
詹姆斯	-16022
达到的	-16023
airo	-16024
asty	-16025
aves	-16026
eady	-16027
quis	-16028
ules	-16029
umin	-16030
▁Ham	-16031
▁Sou	-16032
▁bin	-16033
▁wet	-16034
▁我们说	-16035
▁有没有	-16036
▁相当于	-16037
▁第二天	-16038
▁这都是	-16039
▁首先是	-16040
临床试验	-16041
了一系列	-16042
令人惊讶	-16043
你的身体	-16044
做得更好	-16045
坦桑尼亚	-16046
我们有了	-16047
更进一步	-16048
根本没有	-16049
热带雨林	-16050
这些地方	-16051
这样做的	-16052
这项工作	-16053
icket	-16054
▁Gene	-16055
▁Miss	-16056
▁asks	-16057
▁cham	-16058
▁damn	-16059
▁duck	-16060
▁file	-16061
▁gear	-16062
▁hors	-16063
▁rats	-16064
▁urge	-16065
▁可以看到	-16066
▁我们一直	-16067
▁我的工作	-16068
▁所以如果	-16069
日常生活中	-16070
这样的事情	-16071
非政府组织	-16072
▁2008,	-16073
▁Until	-16074
▁excit	-16075
▁fancy	-16076
▁lions	-16077
▁shirt	-16078
▁shots	-16079
▁correl	-16080
▁estate	-16081
▁makers	-16082
▁nearby	-16083
▁preval	-16084
▁scores	-16085
▁silver	-16086
▁stored	-16087
▁subway	-16088
▁tempor	-16089
▁tragic	-16090
▁unable	-16091
▁Develop	-16092
▁Lincoln	-16093
▁cigaret	-16094
▁deserve	-16095
▁flowing	-16096
▁harness	-16097
▁hormone	-16098
▁ignored	-16099
▁secrets	-16100
▁someday	-16101
▁winning	-16102
▁choosing	-16103
▁friendly	-16104
▁pointing	-16105
▁scholars	-16106
▁socially	-16107
▁breakfast	-16108
▁completed	-16109
▁estimates	-16110
▁explosion	-16111
▁factories	-16112
▁household	-16113
▁replicate	-16114
▁terrorist	-16115
▁transcend	-16116
▁compelling	-16117
▁consistent	-16118
▁ecological	-16119
▁endangered	-16120
▁generating	-16121
▁prediction	-16122
▁structural	-16123
▁terrifying	-16124
▁established	-16125
▁concentration	-16126
"(	-16127
LS	-16128
TC	-16129
yd	-16130
▁既	-16131
一月	-16132
一架	-16133
一模	-16134
一道	-16135
义务	-16136
事务	-16137
产出	-16138
人为	-16139
付钱	-16140
优化	-16141
储备	-16142
关乎	-16143
前列	-16144
升级	-16145
卡尔	-16146
受损	-16147
同等	-16148
名词	-16149
后悔	-16150
品种	-16151
在地	-16152
在说	-16153
坐标	-16154
培育	-16155
声称	-16156
复合	-16157
奇的	-16158
威廉	-16159
子宫	-16160
字胡	-16161
它也	-16162
小镇	-16163
当代	-16164
悲惨	-16165
情境	-16166
推出	-16167
斯加	-16168
施加	-16169
暂停	-16170
更长	-16171
棘手	-16172
歌颂	-16173
灌输	-16174
监督	-16175
约束	-16176
英镑	-16177
资讯	-16178
足的	-16179
身于	-16180
转折	-16181
辅助	-16182
辅导	-16183
遵守	-16184
问道	-16185
随后	-16186
难的	-16187
雕像	-16188
雨水	-16189
鳄鱼	-16190
黏液	-16191
bie	-16192
hop	-16193
hot	-16194
iki	-16195
▁Ol	-16196
▁一边	-16197
▁人口	-16198
▁分享	-16199
▁创新	-16200
▁某种	-16201
▁电子	-16202
一起来	-16203
了一种	-16204
他们想	-16205
传染病	-16206
出生的	-16207
到现在	-16208
南极洲	-16209
向他们	-16210
完全的	-16211
幸福感	-16212
幼儿园	-16213
影响到	-16214
很不错	-16215
很快地	-16216
很长的	-16217
或其他	-16218
有效地	-16219
有点儿	-16220
的医生	-16221
的唯一	-16222
的领域	-16223
目的地	-16224
第一步	-16225
翻译成	-16226
肥胖症	-16227
肯定的	-16228
转变为	-16229
这一个	-16230
飞机上	-16231
1500	-16232
2001	-16233
2005	-16234
John	-16235
eros	-16236
ieve	-16237
ifty	-16238
imal	-16239
sell	-16240
shah	-16241
▁20-	-16242
▁Nan	-16243
▁Ros	-16244
▁Som	-16245
▁awk	-16246
▁ski	-16247
▁但其实	-16248
▁你觉得	-16249
▁其实是	-16250
▁它不是	-16251
▁我们只	-16252
▁我们让	-16253
▁所以它	-16254
▁理查德	-16255
▁科学家	-16256
▁这件事	-16257
▁这可以	-16258
一些问题	-16259
之一就是	-16260
了他们的	-16261
可持续性	-16262
喜欢这个	-16263
大规模的	-16264
怎么可能	-16265
意识形态	-16266
我们一直	-16267
我们还是	-16268
我所说的	-16269
我有一个	-16270
改变我们	-16271
有了一个	-16272
的环境中	-16273
角度来看	-16274
这是我的	-16275
itzer	-16276
orage	-16277
phere	-16278
rence	-16279
▁Abra	-16280
▁Fort	-16281
▁Rand	-16282
▁Shan	-16283
▁Vict	-16284
▁Zero	-16285
▁athe	-16286
▁bind	-16287
▁coca	-16288
▁dile	-16289
▁lock	-16290
▁prec	-16291
▁seas	-16292
▁tatt	-16293
▁woke	-16294
▁你知道吗	-16295
▁它看起来	-16296
▁对于那些	-16297
▁就是这个	-16298
可再生能源	-16299
解决的问题	-16300
icient	-16301
itated	-16302
rowing	-16303
▁Brook	-16304
▁Colle	-16305
▁Eight	-16306
▁Peace	-16307
▁amate	-16308
▁blogs	-16309
▁eaten	-16310
▁lungs	-16311
▁membr	-16312
▁overl	-16313
▁sheet	-16314
▁sixth	-16315
▁tower	-16316
▁tubes	-16317
▁uncle	-16318
itative	-16319
▁Scient	-16320
▁aggreg	-16321
▁annual	-16322
▁canopy	-16323
▁client	-16324
▁crimes	-16325
▁ethnic	-16326
▁insane	-16327
▁manual	-16328
▁sketch	-16329
▁vagina	-16330
controll	-16331
▁Anybody	-16332
▁Beijing	-16333
▁Mandela	-16334
▁Whereas	-16335
▁awkward	-16336
▁bottles	-16337
▁despair	-16338
▁footage	-16339
▁hardest	-16340
▁manager	-16341
▁package	-16342
▁puzzles	-16343
▁readers	-16344
▁activist	-16345
▁arrested	-16346
▁dopamine	-16347
▁downtown	-16348
▁earliest	-16349
▁failures	-16350
▁genocide	-16351
▁homework	-16352
▁reinvent	-16353
▁relation	-16354
▁shifting	-16355
▁unemploy	-16356
▁collapsed	-16357
▁interrupt	-16358
▁miserable	-16359
▁obstacles	-16360
▁challenged	-16361
▁discipline	-16362
▁encouraged	-16363
▁excitement	-16364
▁threatened	-16365
▁vegetables	-16366
▁discovering	-16367
▁legislation	-16368
▁reconstruct	-16369
▁unconscious	-16370
▁humanitarian	-16371
HA	-16372
▁哇	-16373
▁成	-16374
▁现	-16375
▁生	-16376
与其	-16377
义肢	-16378
人均	-16379
仅有	-16380
低估	-16381
使其	-16382
光明	-16383
光谱	-16384
分泌	-16385
削减	-16386
半个	-16387
厨师	-16388
发的	-16389
同伴	-16390
听觉	-16391
土著	-16392
塔尔	-16393
夫妇	-16394
奶酪	-16395
实地	-16396
实的	-16397
实行	-16398
密集	-16399
导演	-16400
就算	-16401
尽力	-16402
巧合	-16403
心态	-16404
总值	-16405
恰好	-16406
我再	-16407
政权	-16408
故障	-16409
散步	-16410
时尚	-16411
易斯	-16412
月亮	-16413
界的	-16414
白宫	-16415
直播	-16416
相遇	-16417
真菌	-16418
科幻	-16419
端的	-16420
签署	-16421
能把	-16422
越南	-16423
郊区	-16424
野外	-16425
铁路	-16426
随处	-16427
难度	-16428
飞过	-16429
Cor	-16430
bow	-16431
cro	-16432
eps	-16433
▁AK	-16434
▁MO	-16435
▁ah	-16436
▁od	-16437
▁与其	-16438
▁他把	-16439
▁但也	-16440
▁公共	-16441
▁因而	-16442
▁宗教	-16443
▁展示	-16444
▁思考	-16445
▁我真	-16446
▁战争	-16447
▁环境	-16448
▁而当	-16449
▁讨论	-16450
与其他	-16451
严肃的	-16452
主要是	-16453
些时候	-16454
以前的	-16455
以至于	-16456
传播的	-16457
分之二	-16458
加起来	-16459
变得很	-16460
塔利班	-16461
太多了	-16462
家可归	-16463
寄生虫	-16464
崭新的	-16465
幸福的	-16466
当然是	-16467
拥有一	-16468
搞清楚	-16469
数十亿	-16470
机构的	-16471
杰出的	-16472
的形状	-16473
的来源	-16474
的确是	-16475
综合征	-16476
英国的	-16477
观众笑	-16478
许许多	-16479
这东西	-16480
这里是	-16481
那么大	-16482
银行家	-16483
降低了	-16484
2003	-16485
aped	-16486
clop	-16487
ghai	-16488
mony	-16489
neys	-16490
▁Had	-16491
▁Ron	-16492
▁Sky	-16493
▁Tas	-16494
▁Tel	-16495
▁gif	-16496
▁ooh	-16497
▁tut	-16498
▁只不过	-16499
▁我就是	-16500
▁我自己	-16501
▁现在的	-16502
▁而是在	-16503
▁这使得	-16504
▁这本书	-16505
▁那是我	-16506
了不起的	-16507
介绍一下	-16508
变得更好	-16509
另外一种	-16510
感到非常	-16511
所有的人	-16512
无论如何	-16513
是怎样的	-16514
给大家看	-16515
这样的事	-16516
连接起来	-16517
anges	-16518
arest	-16519
ashed	-16520
copic	-16521
omics	-16522
otted	-16523
produ	-16524
▁Camp	-16525
▁Prof	-16526
▁brid	-16527
▁fits	-16528
▁grav	-16529
▁inch	-16530
▁lamp	-16531
▁他们发现	-16532
▁他们只是	-16533
▁但是我想	-16534
▁我们可能	-16535
▁所以这是	-16536
▁现在我想	-16537
▁而是因为	-16538
同样的事情	-16539
我们的工作	-16540
是怎么回事	-16541
itably	-16542
racies	-16543
▁Sorry	-16544
▁devil	-16545
▁fault	-16546
▁hired	-16547
▁immun	-16548
▁numer	-16549
▁pizza	-16550
▁poems	-16551
▁redef	-16552
▁rehab	-16553
▁revol	-16554
▁现在让我们	-16555
▁Andrew	-16556
▁Newton	-16557
▁Yorker	-16558
▁cycles	-16559
▁drones	-16560
▁execut	-16561
▁fibers	-16562
▁freely	-16563
▁fusion	-16564
▁infant	-16565
▁lowest	-16566
▁metric	-16567
▁stimul	-16568
▁thread	-16569
▁Neander	-16570
▁Silicon	-16571
▁Taliban	-16572
▁banking	-16573
▁distort	-16574
▁located	-16575
▁rethink	-16576
▁storage	-16577
▁trigger	-16578
▁Secondly	-16579
▁distract	-16580
▁listened	-16581
▁terribly	-16582
▁wildlife	-16583
▁expecting	-16584
▁extension	-16585
▁passenger	-16586
▁phenomena	-16587
▁preparing	-16588
▁reflection	-16589
▁yourselves	-16590
▁connectivity	-16591
▁occasionally	-16592
2%	-16593
▁北	-16594
▁回	-16595
▁查	-16596
▁男	-16597
一副	-16598
人说	-16599
会把	-16600
侵蚀	-16601
倍的	-16602
全都	-16603
原谅	-16604
可不	-16605
可口	-16606
同学	-16607
地质	-16608
孤立	-16609
并未	-16610
很像	-16611
手上	-16612
掉的	-16613
收音	-16614
更深	-16615
有三	-16616
有谁	-16617
期刊	-16618
木材	-16619
毫米	-16620
生殖	-16621
登上	-16622
监禁	-16623
窗口	-16624
累积	-16625
经前	-16626
胳膊	-16627
能从	-16628
船上	-16629
节点	-16630
花朵	-16631
英亩	-16632
菲利	-16633
落在	-16634
著作	-16635
表述	-16636
要有	-16637
车里	-16638
过后	-16639
遗产	-16640
里士	-16641
雇员	-16642
频繁	-16643
饥荒	-16644
CEO	-16645
dig	-16646
isy	-16647
omp	-16648
oug	-16649
pie	-16650
upp	-16651
▁从中	-16652
▁你所	-16653
▁市场	-16654
▁收集	-16655
▁类似	-16656
上一个	-16657
不舒服	-16658
会导致	-16659
你们会	-16660
使用者	-16661
制造商	-16662
医院的	-16663
叙利亚	-16664
另一只	-16665
和你的	-16666
和大家	-16667
在世界	-16668
在哪儿	-16669
在家里	-16670
基础上	-16671
多巴胺	-16672
对称性	-16673
对那些	-16674
很好地	-16675
我看到	-16676
投入到	-16677
时期的	-16678
是否会	-16679
显示出	-16680
暴力的	-16681
有三个	-16682
来说是	-16683
样东西	-16684
照相机	-16685
用的是	-16686
的最佳	-16687
的最大	-16688
的模型	-16689
移动的	-16690
自我的	-16691
致命的	-16692
见到的	-16693
赢得了	-16694
转换成	-16695
过这个	-16696
进入到	-16697
长期的	-16698
非常棒	-16699
2004	-16700
bola	-16701
erey	-16702
mill	-16703
pled	-16704
rame	-16705
rint	-16706
▁30-	-16707
▁Ext	-16708
▁Jud	-16709
▁Les	-16710
▁Lib	-16711
▁Ver	-16712
▁ads	-16713
▁hal	-16714
▁hub	-16715
▁jew	-16716
▁他们从	-16717
▁假如你	-16718
▁因为那	-16719
▁在未来	-16720
▁在这一	-16721
▁大量的	-16722
▁我们和	-16723
▁我总是	-16724
▁我把它	-16725
▁我无法	-16726
▁我正在	-16727
▁有一种	-16728
▁这其中	-16729
▁这可能	-16730
做这件事	-16731
怎么做呢	-16732
我和我的	-16733
我的身体	-16734
所有人的	-16735
有不同的	-16736
诺贝尔奖	-16737
这么一个	-16738
这样做了	-16739
阿拉伯语	-16740
apped	-16741
break	-16742
izers	-16743
oples	-16744
rance	-16745
uctor	-16746
▁2030	-16747
▁July	-16748
▁SETI	-16749
▁Snow	-16750
▁anat	-16751
▁chop	-16752
▁crop	-16753
▁labs	-16754
▁toss	-16755
▁turb	-16756
▁你们可能	-16757
很好的例子	-16758
结合在一起	-16759
person	-16760
vation	-16761
▁2010,	-16762
▁Asian	-16763
▁Being	-16764
▁Court	-16765
▁Delhi	-16766
▁Jones	-16767
▁Kevin	-16768
▁Yemen	-16769
▁brows	-16770
▁camps	-16771
▁chron	-16772
▁fires	-16773
▁funds	-16774
▁inher	-16775
▁nodes	-16776
▁pride	-16777
▁reefs	-16778
▁shore	-16779
▁shout	-16780
▁wheat	-16781
▁但是我认为	-16782
shahidi	-16783
▁Anyone	-16784
▁Ladies	-16785
▁builds	-16786
▁dragon	-16787
▁editor	-16788
▁epidem	-16789
▁native	-16790
▁negoti	-16791
▁pedest	-16792
▁planes	-16793
▁potato	-16794
▁recess	-16795
▁troops	-16796
▁如果我们可以	-16797
▁farming	-16798
▁graphic	-16799
▁pockets	-16800
▁profile	-16801
▁profits	-16802
▁tsunami	-16803
▁Palestin	-16804
▁Southern	-16805
▁calories	-16806
▁connects	-16807
▁contrary	-16808
▁intended	-16809
▁offering	-16810
▁replaced	-16811
▁smallest	-16812
▁activists	-16813
▁audiences	-16814
▁empowered	-16815
▁incentive	-16816
▁mechanics	-16817
▁motivated	-16818
▁nonprofit	-16819
▁performed	-16820
▁sacrifice	-16821
▁signature	-16822
▁temporary	-16823
▁volunteer	-16824
▁workforce	-16825
▁continents	-16826
▁continuous	-16827
▁elementary	-16828
▁helicopter	-16829
▁monitoring	-16830
▁phosphorus	-16831
▁researcher	-16832
▁supporting	-16833
▁fortunately	-16834
▁surrounding	-16835
▁mathematicians	-16836
da	-16837
gu	-16838
mn	-16839
▁装	-16840
▁达	-16841
三次	-16842
不该	-16843
中期	-16844
乐高	-16845
乳腺	-16846
价钱	-16847
何处	-16848
侵入	-16849
倡导	-16850
充电	-16851
克兰	-16852
克利	-16853
全新	-16854
冥想	-16855
几种	-16856
切的	-16857
加油	-16858
动词	-16859
友好	-16860
变了	-16861
古巴	-16862
可笑	-16863
名言	-16864
在她	-16865
塔斯	-16866
大人	-16867
孟买	-16868
定了	-16869
屁股	-16870
带走	-16871
开着	-16872
影子	-16873
心情	-16874
思索	-16875
抚养	-16876
拍了	-16877
指向	-16878
揭露	-16879
搬到	-16880
摇滚	-16881
智商	-16882
条约	-16883
核弹	-16884
水和	-16885
洛克	-16886
畏惧	-16887
罢了	-16888
考验	-16889
胚胎	-16890
蛛丝	-16891
蜣螂	-16892
袋狼	-16893
要多	-16894
让她	-16895
谁是	-16896
质的	-16897
辨别	-16898
逮捕	-16899
针头	-16900
长久	-16901
问他	-16902
问到	-16903
Ste	-16904
eds	-16905
iva	-16906
osn	-16907
oto	-16908
uts	-16909
▁Di	-16910
▁PC	-16911
▁他想	-16912
▁传统	-16913
▁想像	-16914
▁我再	-16915
▁游戏	-16916
▁给我	-16917
▁记者	-16918
▁这与	-16919
▁这类	-16920
一定的	-16921
专业的	-16922
之外的	-16923
了一项	-16924
人民的	-16925
亿人口	-16926
他们对	-16927
健康和	-16928
分钟的	-16929
因为他	-16930
安德特	-16931
年以后	-16932
忽略了	-16933
感到很	-16934
有兴趣	-16935
来解决	-16936
汽车的	-16937
物种的	-16938
现在在	-16939
生物的	-16940
电视机	-16941
的任务	-16942
的几率	-16943
的办法	-16944
的基本	-16945
的数学	-16946
相应的	-16947
结构的	-16948
综合症	-16949
能得到	-16950
能找到	-16951
艺术的	-16952
表面的	-16953
被认为	-16954
说明了	-16955
这些事	-16956
这只是	-16957
4000	-16958
acts	-16959
city	-16960
gram	-16961
ihad	-16962
made	-16963
ulin	-16964
▁DVD	-16965
▁Dad	-16966
▁Han	-16967
▁Jon	-16968
▁vit	-16969
▁一些人	-16970
▁不知道	-16971
▁但不是	-16972
▁但是当	-16973
▁可以说	-16974
▁在很多	-16975
▁我们为	-16976
▁我们又	-16977
▁我们来	-16978
▁把他们	-16979
▁这时候	-16980
▁这样做	-16981
亿美元的	-16982
佛罗里达	-16983
大部分的	-16984
尼安德特	-16985
工作的人	-16986
核磁共振	-16987
生产总值	-16988
百分之一	-16989
的另一个	-16990
的第一个	-16991
那个时候	-16992
重新定义	-16993
atson	-16994
inter	-16995
ormal	-16996
peare	-16997
pless	-16998
▁Open	-16999
▁Pete	-17000
▁Sudd	-17001
▁airl	-17002
▁bold	-17003
▁cath	-17004
▁epis	-17005
▁gram	-17006
▁hybr	-17007
▁melt	-17008
▁palm	-17009
▁rabb	-17010
▁rape	-17011
▁shit	-17012
▁实际上是	-17013
▁我们今天	-17014
▁我想知道	-17015
可持续发展	-17016
我们称之为	-17017
撒哈拉以南	-17018
arians	-17019
astics	-17020
cyclop	-17021
ournal	-17022
▁Arist	-17023
▁Koran	-17024
▁Medic	-17025
▁Spain	-17026
▁ambig	-17027
▁angel	-17028
▁caves	-17029
▁coinc	-17030
▁cruel	-17031
▁deals	-17032
▁farms	-17033
▁ratio	-17034
▁slums	-17035
很长一段时间	-17036
reating	-17037
▁Columb	-17038
▁contam	-17039
▁hiding	-17040
▁orders	-17041
▁College	-17042
▁Redwood	-17043
▁cluster	-17044
▁discrim	-17045
▁ecology	-17046
▁peoples	-17047
▁propose	-17048
▁pursuit	-17049
▁smiling	-17050
▁stepped	-17051
▁tension	-17052
▁terrain	-17053
▁wedding	-17054
akespeare	-17055
▁Shanghai	-17056
▁branches	-17057
▁comments	-17058
▁concerns	-17059
▁counting	-17060
▁geometry	-17061
▁managers	-17062
▁shipping	-17063
▁stranger	-17064
▁striking	-17065
▁survived	-17066
▁syndrome	-17067
▁Alexander	-17068
▁believing	-17069
▁blindness	-17070
▁economist	-17071
▁guarantee	-17072
▁jellyfish	-17073
▁magnitude	-17074
▁stability	-17075
▁threshold	-17076
otechnology	-17077
▁expedition	-17078
▁infections	-17079
▁interviews	-17080
▁reasonable	-17081
▁ubiquitous	-17082
▁achievement	-17083
▁limitations	-17084
▁marketplace	-17085
▁predictable	-17086
▁grandparents	-17087
▁independence	-17088
▁installation	-17089
▁professionals	-17090
▁administration	-17091
?'	-17092
CD	-17093
NN	-17094
jo	-17095
▁乔	-17096
▁绝	-17097
七个	-17098
不懂	-17099
伤口	-17100
你说	-17101
修理	-17102
充斥	-17103
力学	-17104
协同	-17105
原先	-17106
又有	-17107
口号	-17108
只用	-17109
夏威	-17110
多次	-17111
天啊	-17112
头骨	-17113
子弹	-17114
孙子	-17115
它有	-17116
工艺	-17117
形势	-17118
得的	-17119
愿景	-17120
打败	-17121
担任	-17122
持人	-17123
提炼	-17124
收缩	-17125
无疑	-17126
早餐	-17127
最低	-17128
有种	-17129
服装	-17130
横跨	-17131
比起	-17132
比这	-17133
浓度	-17134
海豹	-17135
[...]
